[PAD]
[UNK]
[SEP]
[CLS]
[MASK]
!
"
$
%
&
'
(
)
*
+
,
-
.
/
0
1
2
3
4
5
6
7
8
9
:
;
=
?
A
B
C
D
E
F
G
H
I
J
K
L
M
N
O
P
Q
R
S
T
U
V
W
X
Y
Z
\
]
^
_
`
a
b
c
d
e
f
g
h
i
j
k
l
m
n
o
p
q
r
s
t
u
v
w
x
y
z
{
|
}
~
·
∼
ㄱ
ㄲ
ㄳ
ㄴ
ㄵ
ㄶ
ㄷ
ㄸ
ㄹ
ㄺ
ㄻ
ㄼ
ㄽ
ㄾ
ㄿ
ㅀ
ㅁ
ㅂ
ㅃ
ㅄ
ㅅ
ㅆ
ㅇ
ㅈ
ㅉ
ㅊ
ㅋ
ㅌ
ㅍ
ㅎ
가
각
간
갇
갈
갉
감
갑
값
갓
갔
강
갖
갗
갘
같
갚
갛
개
객
갠
갤
갬
갭
갯
갰
갱
갶
갸
갹
갼
걀
걈
걍
걑
걔
걘
거
걱
걲
건
걷
걸
걺
검
겁
겂
것
겄
겅
겆
겇
겉
겊
겋
게
겍
겐
겔
겜
겝
겟
겠
겡
겨
격
겪
견
겯
결
겸
겹
겻
겼
경
겿
곁
곂
계
곈
곌
곗
곘
곙
고
곡
곤
곧
골
곪
곬
곯
곰
곱
곲
곳
공
곶
곷
과
곽
관
괂
괄
괌
괏
광
괒
괕
괗
괘
괜
괭
괴
괵
괸
괼
굄
굇
굉
교
굑
굔
굘
굣
굥
굦
구
국
군
굳
굴
굵
굶
굼
굽
굿
궁
궂
궃
궅
궇
궈
궉
권
궎
궐
궘
궜
궝
궤
궨
궬
궴
궷
귀
귁
귄
귈
귐
귑
귓
규
귝
균
귤
귬
귯
그
극
근
귿
글
긁
금
급
긋
긍
긑
긔
긘
긜
기
긱
긴
긷
길
긾
김
깁
깂
깃
깄
깅
깆
깉
깊
까
깍
깎
깐
깓
깔
깖
깜
깝
깟
깠
깡
깢
깥
깨
깬
깰
깸
깹
깻
깼
깽
꺄
꺅
꺌
꺠
꺼
꺽
꺾
껀
껄
껌
껍
껏
껐
껑
께
껙
껜
껠
껩
껫
껭
껴
껶
껸
껼
꼇
꼈
꼍
꼐
꼬
꼭
꼮
꼰
꼳
꼴
꼼
꼽
꼿
꽁
꽂
꽃
꽅
꽆
꽈
꽉
꽌
꽐
꽛
꽝
꽤
꽥
꽦
꽹
꾀
꾄
꾈
꾐
꾕
꾜
꾸
꾹
꾼
꾿
꿀
꿇
꿈
꿉
꿋
꿍
꿎
꿏
꿔
꿕
꿘
꿧
꿨
꿩
꿰
꿴
꿸
뀀
뀌
뀍
뀐
뀔
뀜
뀝
뀨
끄
끈
끊
끌
끎
끓
끔
끕
끗
끙
끝
끟
끼
끽
낀
낄
낌
낍
낏
낑
나
낙
낚
낛
난
낟
날
낡
낢
낧
남
납
낫
났
낭
낮
낯
낱
낳
내
낵
낸
낼
냄
냅
냇
냈
냉
냐
냑
냔
냘
냠
냣
냤
냥
냬
냼
넀
너
넉
넋
넌
넎
넏
널
넑
넒
넓
넖
넗
넘
넙
넛
넜
넝
넞
넡
넢
넣
네
넥
넨
넬
넴
넵
넶
넷
넸
넹
녀
녁
년
녅
녈
녋
념
녑
녓
녔
녕
녘
녙
녜
녝
녠
녤
녬
노
녹
논
놀
놄
놈
놉
놋
농
높
놓
놔
놘
놨
놩
놰
뇌
뇍
뇐
뇓
뇔
뇜
뇨
뇩
뇬
뇰
뇸
뇻
뇽
누
눅
눈
눋
눌
눔
눕
눗
눙
눞
눠
눴
눼
뉘
뉙
뉜
뉠
뉨
뉩
뉫
뉴
뉵
뉸
뉼
늄
늅
늇
늉
느
늑
늒
는
늕
늗
늘
늙
늠
늡
늣
능
늦
늨
늩
늪
늬
늰
늴
늿
니
닉
닌
닐
님
닙
닛
닜
닝
닞
닠
닢
다
닥
닦
단
닫
달
닭
닮
닯
닳
담
답
닷
닸
당
닺
닻
닽
닿
대
댁
댄
댇
댈
댐
댑
댓
댔
댕
댚
댛
댜
댠
댤
댱
댸
더
덕
덖
던
덙
덛
덜
덝
덞
덟
덣
덤
덥
덧
덩
덫
덭
덮
데
덱
덴
델
뎀
뎁
뎃
뎅
뎌
뎐
뎝
뎠
뎡
뎦
뎨
뎬
뎰
도
독
돈
돋
돌
돍
돎
돐
돔
돕
돗
동
돚
돛
돝
돟
돠
돤
돴
돵
돼
됀
됄
됌
됍
됏
됐
되
됙
된
될
됨
됩
됫
됬
됭
됮
됴
됸
됼
둄
두
둑
둔
둗
둘
둙
둠
둡
둣
둥
둬
둴
둿
뒀
뒁
뒈
뒤
뒥
뒨
뒬
뒴
뒵
뒷
뒸
뒹
듀
듁
듄
듈
듐
듕
드
득
든
듣
들
듥
듦
듫
듬
듭
듯
등
듸
디
딕
딘
딛
딜
딤
딥
딧
딨
딩
딪
딫
따
딱
딲
딴
딷
딸
땀
땁
땃
땄
땅
땋
때
땐
땔
땜
땝
땟
땠
땡
땨
떄
떘
떙
떠
떡
떢
떤
떨
떪
떫
떯
떰
떱
떳
떴
떵
떻
떼
떽
뗀
뗄
뗏
뗐
뗑
뗬
뗴
또
똑
똔
똘
똠
똣
똥
똬
뙈
뙤
뙨
뚜
뚝
뚠
뚤
뚧
뚫
뚬
뚯
뚱
뚸
뛰
뛱
뛴
뛸
뜀
뜅
뜨
뜩
뜬
뜯
뜰
뜷
뜸
뜹
뜻
뜽
띄
띈
띌
띔
띠
띡
띤
띨
띰
띱
띵
라
락
란
랄
람
랍
랏
랐
랑
랒
랕
랖
랗
래
랙
랜
랠
램
랩
랫
랬
랭
랱
랴
략
랸
랼
럄
럅
럇
럈
량
럐
럔
러
럭
런
럲
럴
럼
럽
럿
렀
렁
렂
렃
렆
렇
레
렉
렌
렐
렗
렘
렙
렛
렜
렝
렡
려
력
련
렬
렴
렵
렷
렸
령
례
롄
롈
롐
롓
로
록
론
롣
롤
롬
롭
롯
롱
롲
롸
롹
롼
뢀
뢉
뢨
뢰
뢱
뢴
뢸
룀
룁
룅
료
룍
룐
룔
룝
룟
룡
루
룩
룬
룯
룰
룸
룹
룻
룽
뤀
뤄
뤈
뤌
뤗
뤘
뤠
뤰
뤳
뤼
뤽
륀
륄
륌
륍
륏
륑
류
륙
륜
률
륨
륩
륭
르
륵
른
륻
를
름
릅
릇
릉
릌
릍
릎
릐
릘
릫
리
릭
린
릳
릴
림
립
릿
맀
링
맃
맄
맆
마
막
만
많
맏
말
맑
맕
맘
맙
맛
맜
망
맞
맟
맠
맡
맣
매
맥
맨
맫
맬
맴
맵
맷
맸
맹
맺
맻
맽
먀
먁
먄
먈
먕
먗
머
먹
먼
먾
멀
멂
멈
멉
멋
멍
멎
멏
멓
메
멕
멘
멜
멤
멥
멧
멨
멩
멪
며
멱
면
멸
몀
몃
몄
명
몆
몇
몌
몐
몔
모
목
몫
몬
몯
몰
몴
몸
몹
못
몽
뫁
뫄
뫔
뫙
뫼
묀
묄
묏
묑
묘
묜
묠
묫
묭
무
묵
묶
문
묺
묻
물
묽
묾
뭄
뭅
뭇
뭉
뭋
뭍
뭏
뭐
뭔
뭘
뭡
뭣
뭥
뭬
뭰
뭴
뮈
뮌
뮐
뮝
뮤
뮨
뮬
뮴
뮹
뮺
므
믁
믄
믈
믐
믓
믕
믜
미
믹
민
믾
믿
밀
밂
밈
밉
밋
밌
밍
밎
및
밑
밒
밓
바
박
밖
반
밚
받
발
밝
밞
밟
밠
밣
밤
밥
밧
밨
방
밪
밫
밬
밭
밯
배
백
밴
밷
밸
뱀
뱁
뱃
뱄
뱅
뱆
뱉
뱌
뱐
뱔
뱜
뱟
뱡
버
벅
번
벉
벋
벌
벏
범
법
벗
벙
벚
벛
베
벡
벤
벧
벨
벰
벱
벳
벴
벵
벹
벼
벽
변
별
볈
볍
볏
볐
병
볓
볕
볘
볜
볠
보
복
볶
본
볻
볼
볿
봄
봅
봇
봉
봋
봍
봐
봔
봘
봤
봥
봬
뵈
뵉
뵌
뵐
뵘
뵙
뵤
뵨
뵬
부
북
분
붇
불
붉
붏
붐
붑
붓
붕
붘
붙
붛
붜
붴
붵
붸
뷀
뷁
뷋
뷔
뷘
뷜
뷤
뷰
뷴
뷸
븀
브
븍
븐
블
븡
븥
븨
비
빅
빈
빋
빌
빍
빎
빔
빕
빗
빙
빚
빛
빝
빠
빡
빤
빨
빩
빰
빱
빳
빴
빵
빻
빼
빽
뺀
뺄
뺌
뺏
뺐
뺑
뺘
뺙
뺨
뺩
뺴
뺵
뺼
뻇
뻐
뻑
뻔
뻗
뻘
뻣
뻤
뻥
뻩
뻬
뻰
뻴
뼁
뼈
뼉
뼘
뼛
뽀
뽁
뽄
뽈
뽐
뽑
뽕
뾰
뿅
뿌
뿍
뿐
뿔
뿜
뿟
뿡
쀍
쀼
쁘
쁜
쁠
쁨
쁩
삐
삑
삔
삘
삠
삡
삣
삥
사
삭
삮
삯
산
삳
살
삵
삶
삻
삼
삽
삿
샀
상
샅
새
색
샌
샏
샐
샘
샙
샛
샜
생
샞
샤
샥
샨
샬
샴
샵
샷
샹
샾
섀
섁
섄
섈
섊
섐
섓
섕
서
석
섞
선
섡
섣
설
섥
섦
섧
섨
섬
섭
섯
섰
성
섶
섷
세
섹
센
섿
셀
셈
셉
셋
셌
셍
셑
셒
셔
셕
셖
션
셜
셤
셥
셧
셨
셩
셰
셱
셴
셸
솀
솁
솃
솅
소
속
솎
솏
손
솑
솓
솔
솜
솝
솟
송
솥
솦
솨
솬
솽
쇄
쇠
쇤
쇨
쇰
쇳
쇵
쇼
쇽
숀
숄
숌
숍
숏
숑
숔
수
숙
순
숟
술
숡
숨
숩
숫
숭
숮
숯
숱
숲
숳
숴
숸
쉅
쉈
쉉
쉐
쉑
쉔
쉘
쉡
쉣
쉥
쉬
쉭
쉰
쉴
쉼
쉽
쉿
슁
슈
슉
슌
슐
슘
슙
슛
슝
슢
스
슥
슦
슨
슬
슭
슴
습
슷
승
슼
슽
슾
싀
싁
시
식
신
싡
싣
실
싦
싨
싫
심
십
싯
싰
싱
싲
싶
싸
싹
싻
싼
싾
싿
쌀
쌈
쌉
쌋
쌌
쌍
쌓
쌔
쌕
쌘
쌤
쌩
쌰
쌴
썅
썌
써
썩
썪
썬
썰
썸
썹
썻
썼
썽
쎄
쎅
쎈
쎌
쎔
쎕
쎗
쎙
쎴
쎼
쎾
쏘
쏙
쏜
쏟
쏠
쏨
쏩
쏫
쏭
쏱
쏳
쏴
쏸
쏼
쐇
쐈
쐉
쐐
쐑
쐬
쐰
쑈
쑤
쑥
쑨
쑬
쑴
쑷
쑹
쒀
쒜
쒸
쒼
쓔
쓘
쓩
쓰
쓱
쓴
쓸
쓿
씀
씁
씃
씉
씌
씐
씜
씨
씩
씬
씰
씸
씹
씻
씼
씽
앃
아
악
안
앉
않
알
앎
앏
앓
암
압
앖
앗
았
앙
앝
앞
앟
애
액
앤
앧
앨
앰
앱
앳
앴
앵
앹
야
약
얀
얄
얅
얆
얇
얉
얊
얌
얍
얏
얐
양
얕
얖
얗
얘
얜
얠
얨
얫
얬
얭
어
억
얶
언
얹
얺
얻
얼
얽
얾
엄
업
없
엇
었
엉
엊
엌
엎
에
엑
엔
엘
엜
엠
엡
엣
엤
엥
엪
여
역
엮
연
열
엵
엶
엷
엹
염
엽
엾
엿
였
영
옂
옅
옆
옇
예
옉
옌
옐
옘
옙
옛
옜
옝
오
옥
온
올
옭
옮
옯
옰
옲
옳
옴
옵
옷
옸
옹
옺
옻
옽
와
왁
완
왈
왐
왑
왓
왔
왕
왘
왙
왜
왝
왠
왬
왯
왰
왱
외
왹
왼
욀
욈
욋
욌
욍
욎
요
욕
욘
욜
욤
욥
욧
욨
용
욯
우
욱
운
욷
울
욺
욿
움
웁
웃
웅
웆
웇
웋
워
웍
원
월
웜
웝
웟
웠
웡
웤
웨
웩
웬
웰
웸
웹
웻
웽
윁
위
윅
윈
윌
윔
윕
윗
윘
윙
윛
윟
유
육
윤
율
윰
윱
윳
융
윶
윷
으
윽
윾
은
읁
읃
을
읅
읆
읊
음
읍
읏
읐
응
읒
읓
읔
읕
읖
읗
의
읜
읠
읫
읭
이
익
인
읺
읻
일
읽
읿
잂
잃
임
입
잆
잇
있
잉
잊
잋
잌
잍
잎
잏
자
작
잓
잔
잖
잗
잘
잚
잛
잠
잡
잣
잤
장
잦
잧
잩
재
잭
잰
잴
잼
잽
잿
쟀
쟁
쟂
쟃
쟇
쟈
쟉
쟌
쟐
쟘
쟙
쟛
쟝
쟤
쟨
쟬
저
적
전
젆
젇
절
젊
젋
젏
점
접
젓
젔
정
젖
젗
젙
제
젝
젠
젣
젤
젬
젭
젯
젱
젲
젵
져
젹
젼
졀
졈
졉
졋
졌
졍
졔
졘
졜
조
족
존
졶
졷
졸
좀
좁
좃
종
좆
좇
좋
좌
좐
좔
좡
좧
좨
좽
죄
죈
죌
죔
죕
죗
죠
죡
죤
죰
죳
죵
주
죽
준
줄
줌
줍
줏
중
줒
줓
줘
줫
줬
줴
줼
쥉
쥐
쥑
쥔
쥘
쥠
쥣
쥤
쥥
쥬
쥰
쥴
쥼
즁
즈
즉
즌
즐
즘
즙
즛
증
즞
지
직
진
짇
질
짊
짐
집
짓
짔
징
짖
짙
짚
짛
짜
짝
짠
짢
짤
짥
짦
짧
짫
짬
짭
짮
짯
짰
짱
째
짹
짼
쨀
쨈
쨋
쨌
쨍
쨔
쨘
쨤
쨩
쨰
쩃
쩄
쩌
쩍
쩐
쩔
쩜
쩝
쩟
쩡
쩨
쩬
쩰
쩸
쩻
쩽
쪄
쪗
쪘
쪼
쪽
쫀
쫃
쫄
쫌
쫍
쫏
쫑
쫒
쫓
쫗
쫙
쫜
쬐
쬔
쬘
쬠
쬬
쬼
쭈
쭉
쭌
쭐
쭘
쭙
쭝
쭤
쮜
쮠
쮸
쯊
쯔
쯕
쯘
쯤
쯧
쯩
찌
찍
찎
찐
찔
찜
찝
찟
찡
찢
찣
찧
차
착
찬
찮
찯
찰
찱
참
찹
찻
찼
창
찾
찿
챂
채
책
챈
챌
챔
챕
챗
챘
챙
챠
챡
챤
챦
챨
챰
챱
챵
처
척
천
첟
철
첨
첩
첫
첬
청
첮
첯
첲
체
첵
첸
첼
쳄
쳅
쳇
쳉
쳐
쳑
쳔
쳘
쳠
쳡
쳣
쳤
쳥
쳬
쳰
초
촉
촌
촐
촘
촙
촛
총
촣
촤
촨
촬
촹
쵀
최
쵝
쵣
쵤
쵸
쵹
쵼
춈
춉
춋
춍
추
축
춘
춛
출
춤
춥
춧
충
춭
춰
춴
췄
췅
췌
췐
췡
취
췩
췬
췰
췽
츄
츅
츈
츌
츔
츕
츙
츠
측
츤
츨
츩
츰
츳
층
츼
치
칙
친
칞
칠
칡
칢
침
칩
칫
칭
칯
칰
칲
칳
카
칵
칸
칼
캄
캅
캇
캉
캌
캎
캐
캑
캔
캘
캠
캡
캣
캤
캥
캪
캬
캰
캴
컁
컅
컈
커
컥
컨
컫
컬
컴
컵
컷
컸
컹
컽
케
켁
켄
켈
켐
켑
켓
켕
켙
켜
켠
켤
켬
켭
켯
켰
켸
켼
콀
코
콕
콘
콙
콜
콤
콥
콧
콩
콬
콭
콰
콱
콴
콸
쾀
쾁
쾃
쾅
쾌
쾍
쾡
쾨
쾩
쾬
쾰
쾻
쾽
쿄
쿈
쿌
쿙
쿠
쿡
쿤
쿨
쿰
쿱
쿳
쿵
쿸
쿹
쿼
쿽
퀀
퀄
퀍
퀏
퀘
퀜
퀠
퀩
퀫
퀭
퀴
퀵
퀸
퀼
큄
큅
큇
큉
큎
큐
큔
큘
큠
큥
크
큭
큰
클
큹
큼
큽
킁
킈
키
킥
킨
킬
킴
킵
킷
킹
타
탁
탄
탈
탉
탐
탑
탓
탔
탕
탖
탘
탙
태
택
탠
탤
탬
탭
탯
탰
탱
탶
탸
탼
턀
턔
터
턱
턴
털
텀
텁
텃
텄
텅
텉
테
텍
텐
텔
텛
템
텝
텟
텡
텥
텦
텨
텬
텼
텽
톄
톈
토
톡
톤
톨
톰
톱
톳
통
톹
톺
톼
퇀
퇌
퇘
퇴
퇸
퇼
툅
툇
툉
툐
툠
툥
투
툭
툰
툴
툼
툽
툿
퉁
퉈
퉉
퉜
퉤
튀
튁
튄
튈
튐
튕
튜
튝
튠
튤
튬
튱
트
특
튻
튼
튽
튿
틀
틂
틈
틉
틋
틍
틑
틔
티
틱
틴
틸
팀
팁
팃
팅
팈
팉
파
팍
팎
판
팑
팔
팜
팝
팟
팠
팡
팥
팦
패
팩
팬
팯
팰
팸
팹
팻
팼
팽
퍁
퍄
퍅
퍈
퍌
퍙
퍠
퍼
퍽
펀
펄
펌
펍
펏
펐
펑
페
펙
펜
펠
펨
펩
펫
펭
펲
펴
편
펼
폄
폅
폈
평
폏
폐
폔
폘
포
폭
폰
폴
폼
폽
폿
퐁
퐃
퐈
퐌
퐝
푀
푁
푄
푈
푕
표
푝
푠
푣
푤
푯
푱
푸
푹
푼
풀
풂
품
풋
풍
풔
풰
퓌
퓐
퓔
퓨
퓬
퓰
퓸
프
픈
플
픔
픕
픙
픜
픝
피
픽
핀
핃
필
핌
핍
핏
핑
핒
핔
하
학
한
핝
핟
할
핢
핥
핦
핧
함
합
핫
핬
항
핮
핲
핳
해
핵
핶
핸
핻
핼
햄
햅
햇
했
행
햊
햋
햏
햐
햑
햔
햗
햘
햝
햠
햡
햣
햤
향
햿
헀
허
헉
헌
헐
험
헙
헛
헜
헝
헤
헥
헨
헬
헰
헴
헵
헷
헸
헹
헿
혀
혁
현
혅
혈
혐
협
혓
혔
형
혜
혠
혱
호
혹
혼
혿
홀
홅
홈
홉
홋
홍
홑
화
확
환
홛
활
홤
홥
홧
황
홯
홰
홱
횃
횄
회
획
횐
횔
횝
횟
횡
횢
효
횩
횬
횰
횻
횽
후
훅
훈
훌
훍
훑
훓
훔
훕
훗
훙
훜
훝
훠
훤
훨
훵
훼
훽
휀
휄
휏
휑
휘
휙
휜
휠
휨
휩
휫
휭
휴
휼
흄
흉
흐
흑
흔
흗
흘
흙
흝
흠
흡
흥
흩
흫
희
흭
흰
흴
흼
힁
히
힉
힌
힐
힘
힙
힛
힜
힝
％
##밭
##고
##개
##로
##를
##부
##사
##령
##관
##이
##었
##던
##즈
##에
##임
##률
##인
##트
##메
##리
##강
##뇌
##실
##급
##회
##담
##서
##니
##와
##동
##아
##전
##쟁
##시
##극
##표
##라
##든
##가
##포
##양
##식
##다
##송
##n
##t
##e
##r
##o
##s
##u
##멘
##는
##르
##원
##하
##게
##면
##틀
##놉
##스
##키
##천
##문
##화
##은
##수
##두
##지
##휘
##립
##주
##의
##추
##검
##열
##일
##등
##학
##데
##춘
##겠
##선
##언
##카
##성
##여
##객
##B
##1
##차
##무
##해
##청
##구
##권
##6
##9
##도
##루
##배
##야
##장
##치
##기
##누
##윤
##까
##험
##례
##5
##p
##우
##며
##공
##했
##채
##보
##상
##3
##길
##애
##m
##d
##국
##종
##합
##축
##대
##자
##씨
##O
##N
##풍
##궁
##7
##명
##k
##g
##갑
##체
##나
##적
##분
##할
##혁
##탄
##소
##년
##단
##만
##들
##찰
##a
##c
##4
##곡
##으
##E
##Y
##세
##속
##군
##족
##신
##정
##내
##h
##l
##J
##C
##토
##믹
##프
##0
##영
##교
##슬
##을
##산
##염
##암
##석
##위
##과
##외
##버
##터
##미
##널
##남
##충
##슈
##마
##살
##T
##V
##법
##륜
##어
##머
##제
##랜
##감
##측
##오
##페
##왕
##러
##i
##y
##렌
##노
##랑
##박
##쥐
##한
##습
##간
##2
##롯
##색
##녹
##역
##재
##너
##엔
##플
##츠
##워
##홀
##테
##호
##병
##별
##연
##행
##요
##민
##브
##런
##있
##조
##써
##함
##력
##계
##타
##묘
##껜
##크
##안
##란
##즘
##황
##셰
##티
##값
##론
##새
##뢰
##더
##히
##끌
##낸
##드
##허
##x
##달
##질
##본
##견
##방
##킬
##순
##섹
##래
##곤
##S
##것
##레
##파
##물
##잘
##못
##림
##품
##갈
##툴
##긴
##되
##록
##센
##U
##I
##앙
##태
##비
##w
##운
##렉
##준
##중
##콘
##현
##턴
##폰
##템
##올
##모
##말
##환
##잡
##금
##초
##겐
##불
##돔
##푸
##설
##엽
##섬
##점
##진
##발
##절
##효
##균
##목
##편
##집
##랴
##심
##돌
##규
##격
##름
##용
##네
##승
##패
##월
##켜
##협
##류
##q
##피
##코
##M
##창
##예
##H
##8
##베
##생
##판
##커
##흉
##벽
##괘
##람
##량
##곧
##펜
##맹
##형
##광
##A
##후
##퍼
##액
##션
##읍
##육
##저
##앉
##z
##된
##디
##침
##팀
##당
##삼
##꾸
##b
##j
##거
##벗
##겨
##였
##음
##반
##매
##싱
##척
##평
##멀
##닉
##쓰
##논
##입
##필
##취
##업
##룬
##혀
##켄
##륙
##숭
##뉴
##팔
##바
##른
##L
##려
##잠
##익
##덕
##몰
##았
##뱡
##향
##밴
##앨
##범
##건
##유
##락
##복
##밀
##럭
##독
##풀
##경
##톤
##헤
##항
##번
##셔
##그
##작
##택
##K
##핑
##끼
##칭
##온
##책
##므
##혹
##응
##백
##능
##탁
##륀
##힐
##D
##쇄
##울
##북
##옥
##철
##Z
##악
##덴
##벨
##섭
##녕
##뮤
##직
##뿐
##v
##십
##룩
##투
##P
##통
##홍
##각
##왔
##손
##앤
##존
##졌
##압
##변
##렬
##활
##술
##댄
##킨
##듭
##혼
##녀
##획
##R
##징
##략
##낭
##받
##블
##쉬
##볜
##몬
##퇴
##Q
##웨
##숴
##벤
##랙
##휴
##쿠
##쿨
##총
##틴
##느
##냐
##져
##층
##막
##랏
##팅
##빈
##W
##륵
##튼
##푹
##링
##맥
##솔
##롬
##료
##접
##잔
##삭
##글
##딕
##띤
##날
##늬
##뱀
##확
##융
##벌
##랍
##닛
##결
##폄
##때
##처
##럼
##굿
##님
##망
##짝
##돈
##흥
##섯
##증
##쳐
##엄
##움
##출
##푼
##답
##렛
##앗
##착
##억
##웅
##케
##볼
##퀸
##좌
##쇠
##펄
##캠
##째
##클
##듣
##련
##닐
##린
##농
##따
##뿔
##친
##옵
##같
##틱
##봇
##약
##닝
##먹
##뭉
##엣
##델
##흐
##캄
##옌
##챔
##념
##텐
##없
##핵
##맵
##G
##먼
##옹
##넥
##쏘
##끄
##엑
##캐
##곱
##퐁
##톰
##붙
##곽
##홈
##쁘
##얼
##괄
##될
##됨
##넌
##펩
##칸
##텔
##골
##흡
##컨
##잎
##슌
##햄
##쌍
##득
##맨
##빌
##괴
##톨
##릭
##근
##탠
##콰
##f
##슐
##깨
##퀴
##굴
##둥
##럽
##롤
##최
##렴
##눅
##닥
##완
##딜
##죽
##윙
##뮬
##희
##씩
##몽
##켰
##갬
##폴
##춤
##얀
##웃
##렁
##촌
##랫
##칼
##뷰
##빔
##벳
##걸
##딴
##X
##탈
##찬
##냈
##밥
##솥
##멤
##헌
##탐
##꽃
##늘
##탼
##쇼
##녁
##갤
##딸
##킵
##둔
##멸
##죄
##왜
##셈
##랬
##쵸
##쿄
##얍
##컵
##셨
##엉
##뛰
##콩
##큼
##빙
##틸
##킥
##흙
##탕
##웰
##탑
##붕
##ㄷ
##릉
##젤
##낫
##픈
##컴
##듯
##밖
##슛
##텀
##렐
##뷔
##랐
##김
##폭
##찌
##엘
##엡
##슨
##않
##끔
##넬
##떼
##율
##튬
##룽
##샤
##뒤
##컬
##렵
##칠
##숙
##셀
##빵
##셜
##램
##칙
##윈
##묄
##꽁
##난
##딘
##쪽
##F
##났
##멍
##똥
##젠
##븐
##특
##훈
##펙
##룡
##슝
##픽
##뎀
##∼
##쯤
##놓
##욕
##썼
##몹
##흑
##뤄
##뤼
##샨
##큘
##쭈
##탱
##곶
##넘
##폐
##옷
##콜
##뮌
##륭
##털
##댕
##펠
##랭
##멧
##귀
##넣
##넷
##샵
##알
##첸
##죠
##퉁
##잼
##렸
##팟
##빛
##쌀
##껍
##닫
##렝
##릿
##콥
##윌
##짓
##혈
##빴
##쳉
##됐
##춛
##줘
##얘
##훙
##욱
##짐
##땃
##눠
##쌘
##겸
##줄
##봉
##벼
##켓
##켈
##즙
##캉
##샘
##펑
##팽
##꼴
##뭇
##킹
##닌
##납
##잣
##텨
##깃
##왓
##띠
##닷
##숲
##듐
##빅
##팩
##룸
##딩
##깔
##삐
##룹
##빠
##꼬
##롱
##턱
##잇
##맛
##뇨
##힘
##궤
##톱
##앱
##벵
##샬
##릴
##쌓
##참
##낙
##텡
##퓌
##왱
##뎠
##낼
##냠
##밑
##쉐
##렙
##덤
##겔
##웍
##쩌
##셸
##봄
##갔
##쩔
##첼
##떤
##헬
##밤
##덱
##툰
##엿
##넨
##꽌
##짜
##갸
##덩
##뱅
##핏
##갓
##꿀
##텍
##펀
##럴
##킷
##즌
##슴
##덜
##쟈
##텁
##묵
##콧
##혜
##둑
##퓨
##밍
##첩
##둘
##줬
##윅
##웠
##힙
##콤
##큐
##꾼
##탬
##빤
##쉘
##멜
##댁
##콕
##헥
##팜
##팠
##봤
##쯔
##딧
##촨
##튜
##쿤
##옙
##귄
##닙
##쑤
##씬
##밋
##묻
##챙
##뵈
##늄
##셉
##됩
##롭
##쭉
##놀
##륨
##킴
##맷
##츄
##떠
##튀
##곳
##릇
##맘
##맞
##톈
##땀
##댑
##곰
##팡
##뚝
##헴
##첨
##혔
##휠
##랩
##홑
##붓
##잉
##눈
##핀
##앞
##췌
##쁜
##룐
##쩍
##씀
##헨
##팬
##룰
##쨩
##왈
##큰
##엠
##좀
##뀌
##밟
##갱
##촉
##뼈
##퀘
##봐
##싹
##쓱
##끈
##찍
##냥
##돼
##캔
##궈
##헐
##쾌
##챠
##밸
##댐
##셋
##튠
##앳
##싸
##빗
##깎
##낚
##떨
##앵
##껏
##겊
##겼
##셩
##쿰
##즐
##칫
##뛸
##껑
##쳇
##께
##뮈
##퓰
##젝
##픔
##뎃
##댓
##뽀
##툼
##뺨
##벅
##욜
##뜨
##찐
##뽕
##탯
##겟
##낌
##뿌
##꽝
##귤
##줌
##및
##넵
##혐
##빡
##눗
##샌
##뜸
##짱
##뚜
##벡
##쑨
##겁
##듀
##깐
##랄
##눔
##쫓
##셴
##쳤
##렀
##웹
##겅
##퀼
##뉘
##긍
##얹
##넴
##젼
##둬
##펫
##켤
##짼
##궐
##뎬
##즉
##칩
##붐
##꿨
##땅
##젬
##떡
##캥
##쓸
##쉴
##앓
##눙
##퇀
##깝
##싶
##솜
##뚱
##ㅇ
##똑
##엇
##흔
##또
##빚
##윗
##줏
##뎅
##숏
##쎈
##뿜
##꿔
##찾
##캡
##쥬
##쑥
##딱
##힛
##잖
##맴
##탓
##뭄
##쉽
##홉
##컷
##챈
##츨
##댜
##넓
##엥
##뢸
##뇰
##걱
##섰
##왁
##흠
##뜯
##뻔
##숍
##펴
##몇
##듬
##휼
##렘
##뻬
##듈
##캴
##딤
##꺼
##팥
##몸
##펌
##돗
##슷
##갛
##짚
##캘
##싯
##쟌
##ㅂ
##헀
##흘
##웬
##굽
##곁
##쿼
##냇
##뽑
##섀
##슘
##욘
##꿰
##벚
##땐
##핸
##윽
##뎌
##옆
##첵
##뵐
##횡
##눌
##힌
##챤
##햇
##씻
##먀
##룀
##읗
##겹
##녔
##옛
##젖
##빰
##뻣
##뎨
##핍
##욀
##꼽
##퓔
##얄
##팍
##횟
##졸
##높
##릎
##탸
##탔
##롄
##톡
##멋
##캣
##샛
##꿈
##잽
##맑
##폼
##텝
##윘
##댔
##끕
##흰
##꽂
##팁
##멩
##엌
##잭
##짬
##갯
##옴
##럐
##겜
##쉈
##륍
##삿
##둠
##뷜
##깥
##팝
##삽
##땜
##칵
##폿
##숫
##덮
##뜻
##껀
##넉
##뻘
##냄
##꼭
##럿
##뱌
##솝
##쓴
##웡
##훑
##겄
##녠
##훠
##톄
##늪
##밧
##딨
##탤
##돋
##앰
##쏴
##뮴
##닿
##혱
##샥
##릅
##꿉
##춰
##뜰
##낮
##돛
##죤
##깊
##렷
##뱃
##낵
##놈
##곙
##펍
##캇
##귈
##됭
##깅
##갚
##돠
##읽
##훼
##끝
##뀐
##딥
##굼
##숨
##샹
##믈
##짖
##밈
##탭
##휜
##빼
##닢
##멕
##빨
##촐
##팰
##펭
##믐
##옐
##뚫
##퀄
##굑
##딛
##씽
##둡
##솟
##핫
##앴
##닭
##묶
##읏
##룻
##낯
##핌
##뫼
##섞
##뷸
##챌
##켑
##띄
##촬
##좨
##굄
##뇽
##쳔
##쮸
##떻
##짤
##뒀
##뉨
##눕
##숑
##밝
##냉
##껴
##돐
##쪼
##쭐
##꼰
##딪
##얽
##벙
##숀
##썰
##헛
##뵤
##툭
##뜬
##틍
##꽈
##꾀
##찜
##볶
##뚤
##롸
##쾨
##춥
##젇
##냑
##냅
##풋
##쩸
##햐
##늑
##좋
##캬
##캅
##벰
##횐
##좡
##칞
##렂
##괼
##챗
##쿵
##챕
##넛
##궜
##빳
##샷
##댈
##걷
##촘
##렇
##찼
##쁠
##쑹
##꼼
##깽
##젯
##찮
##녜
##옝
##컹
##맡
##혠
##셤
##낳
##뇬
##텃
##뤘
##썽
##뮐
##헝
##떱
##돕
##쁨
##썸
##랠
##윕
##쟝
##죈
##싼
##쿡
##쩨
##훤
##젓
##쏠
##쮠
##얗
##켕
##믄
##끽
##춴
##틈
##훌
##텅
##짢
##멈
##샴
##퍽
##췄
##찡
##덟
##걀
##굉
##퀜
##폈
##욤
##쨈
##쏙
##졔
##끗
##낏
##녑
##맺
##셍
##컥
##찻
##섶
##꼿
##뻐
##텼
##볐
##짧
##뢴
##뿅
##쌤
##틔
##봅
##깍
##텟
##둣
##몫
##팻
##뻤
##얌
##젱
##뭐
##웽
##좆
##뎐
##핟
##ㄱ
##낄
##쉿
##쉰
##슼
##깡
##쉔
##춧
##씰
##켐
##쌌
##횬
##엎
##닮
##땡
##힉
##썩
##쿱
##핥
##욧
##쟉
##끊
##빕
##뽁
##먄
##쉼
##쯩
##웁
##셱
##ㅎ
##츈
##츤
##웜
##끓
##몌
##힝
##늠
##쨘
##튿
##뀜
##좁
##뎁
##괒
##찧
##댠
##볍
##웻
##묫
##껫
##씌
##삶
##쎄
##쥔
##놔
##낀
##붉
##촛
##띨
##쭤
##쩡
##흗
##멱
##쾅
##꺽
##눼
##푯
##좃
##셌
##팎
##뱁
##빽
##퀀
##큇
##햏
##쨰
##맙
##밌
##싿
##뱉
##죌
##늦
##섿
##뤽
##뚠
##뼉
##컫
##랸
##긋
##꿍
##쳅
##넝
##쌈
##뇔
##쥴
##딫
##폽
##팹
##옮
##륄
##팸
##슥
##닦
##윷
##줍
##쨋
##몐
##옂
##썹
##덥
##퀵
##냔
##읜
##맣
##콴
##꼈
##깬
##맬
##쪗
##꿋
##뚬
##폘
##훔
##겋
##퇼
##솀
##냘
##탰
##슭
##긔
##얏
##갠
##첫
##엾
##햅
##볏
##쩐
##갗
##쎔
##줴
##퓸
##섕
##떄
##ㅅ
##솅
##꾜
##숄
##됮
##썬
##듦
##찔
##똘
##틂
##읃
##녘
##쨔
##쎼
##썌
##켠
##볕
##녤
##쉥
##놨
##많
##옘
##왐
##덧
##뺌
##넹
##갭
##뜩
##텄
##쫄
##랼
##짠
##븀
##굳
##홧
##툠
##숩
##윔
##큄
##뒷
##궉
##깟
##뷴
##샏
##귓
##괸
##쾡
##갰
##껄
##늉
##녓
##넜
##뒸
##뽈
##잴
##ㄹ
##뒬
##셧
##룅
##챘
##쇽
##긷
##뵬
##ㅌ
##믿
##ㅈ
##뮨
##쌋
##뎡
##쐐
##퀏
##츙
##솨
##롼
##윳
##깁
##푀
##퉈
##쭝
##턔
##퍄
##듁
##룔
##쌔
##짇
##갖
##쥼
##됴
##솬
##뀔
##띵
##췰
##뉠
##꿘
##괭
##쳥
##덫
##삥
##샐
##띔
##쾰
##맸
##왑
##쫌
##왼
##컽
##눴
##빋
##꿩
##뗀
##퉜
##팃
##짭
##얻
##왘
##얇
##꿕
##쑈
##쏭
##꼍
##쫒
##썻
##돚
##헷
##얭
##찟
##좇
##햔
##홤
##ㅁ
##뷘
##몀
##벉
##잌
##둗
##낱
##덞
##솁
##콸
##캰
##켁
##헵
##잿
##툐
##핮
##쇤
##얐
##롹
##솽
##쭌
##탉
##깜
##펐
##잃
##믓
##퀠
##쳰
##셕
##첲
##뙈
##겡
##홋
##쿳
##큅
##궨
##똔
##읠
##쯕
##쑬
##떳
##튐
##됸
##섄
##찢
##싁
##씸
##큉
##깻
##랗
##놋
##뿍
##엮
##껌
##헙
##쫀
##쏜
##얜
##녝
##쿈
##튤
##틋
##맽
##겻
##옸
##뒥
##뤠
##넙
##꽥
##츔
##꺾
##퓐
##붵
##읻
##췬
##훅
##끎
##쨌
##퇘
##꾹
##벱
##큽
##냣
##쬐
##톳
##헹
##찝
##뭍
##쪄
##곗
##씹
##푈
##돤
##훗
##륌
##윰
##옺
##떵
##셥
##둄
##챦
##겝
##짙
##촙
##뫁
##웩
##뒹
##뜀
##듄
##퍙
##섦
##쨍
##챵
##묾
##횽
##옻
##젊
##쫑
##쿌
##뉸
##껐
##쾃
##싣
##듸
##귑
##쩬
##릐
##켯
##몄
##펨
##봍
##ㅊ
##삵
##튕
##ㅋ
##꽉
##쳄
##핬
##쳠
##틉
##쵝
##캑
##걲
##귬
##빝
##돴
##뉼
##쩄
##햤
##쉑
##뻥
##롣
##렡
##뻗
##햘
##킁
##뱐
##큔
##읅
##쥘
##멥
##찹
##붜
##귐
##ㅆ
##뤗
##갇
##툉
##룝
##붑
##숟
##륑
##욿
##푣
##졍
##켸
##ㅍ
##푁
##퍈
##쒸
##쏸
##햑
##겉
##젭
##횰
##쌕
##삔
##ㄴ
##쎌
##젹
##츅
##쿸
##쌩
##뿡
##젔
##뺀
##툥
##죳
##렆
##멉
##숳
##ㅀ
##핼
##쌰
##쟐
##숯
##웇
##럇
##굵
##뇩
##먁
##핢
##푄
##뗑
##됬
##끙
##큠
##삯
##헸
##궃
##튈
##뵌
##솃
##랒
##윁
##멨
##웸
##읒
##쳑
##쇵
##홰
##횔
##얶
##뺏
##뒴
##됍
##맆
##잋
##밞
##띡
##롐
##뒨
##짔
##뺑
##츰
##뙨
##텦
##옇
##맏
##픕
##걔
##흄
##쁩
##귁
##웟
##셑
##묑
##닳
##떰
##뛴
##맜
##붇
##혓
##읐
##튄
##섥
##읕
##맕
##줓
##낡
##샾
##궂
##찿
##뉜
##쳬
##뤌
##덙
##욥
##낟
##땠
##쒀
##춉
##뵨
##쑴
##겿
##욺
##콀
##럅
##됼
##뵙
##윶
##둿
##곯
##짹
##뗄
##뇐
##듥
##걍
##잂
##촹
##툽
##뤀
##놰
##덝
##넸
##믜
##붸
##쥰
##잰
##쾀
##슉
##짊
##졀
##쿹
##ㅃ
##싨
##뀝
##쩜
##괏
##샀
##챂
##뗏
##넒
##땄
##틑
##뭘
##긁
##넋
##싀
##늣
##핶
##삳
##꿇
##횃
##떴
##깰
##퀍
##푤
##떽
##괵
##뻑
##쌉
##놄
##넡
##곈
##졘
##뤈
##좐
##쎅
##숸
##긱
##츼
##튁
##쬼
##헉
##놘
##밂
##룁
##궇
##펏
##겍
##쭙
##갹
##늙
##쿽
##읔
##맟
##멓
##풰
##읖
##됄
##젵
##슁
##욯
##뚯
##댇
##잊
##쫏
##춍
##볘
##죡
##됙
##즛
##댚
##푱
##큭
##넀
##쇳
##쳡
##텬
##뭅
##웋
##럈
##흫
##삡
##뺩
##퉤
##썅
##삠
##똣
##솑
##븡
##붛
##횢
##랖
##낑
##곬
##욌
##늒
##뜷
##쓔
##햿
##녈
##씁
##췐
##훵
##뼘
##왬
##푕
##쥠
##왠
##냤
##좔
##좧
##봘
##믕
##괌
##덣
##퐝
##룟
##졋
##삣
##졶
##숱
##뙤
##럔
##쫙
##멂
##줼
##쳣
##챡
##휩
##븨
##큥
##덭
##줫
##쎴
##밉
##옽
##횻
##엤
##쏟
##놩
##훨
##몃
##뗐
##캎
##웝
##젆
##늕
##륩
##탶
##먈
##낧
##뾰
##읁
##걈
##꼇
##푠
##뷤
##웤
##핻
##뱔
##쉭
##쫜
##옳
##쇨
##칢
##쥣
##읊
##슙
##륏
##묺
##홥
##롲
##싫
##쾻
##뮹
##땨
##밓
##쥥
##팼
##죵
##씜
##쏼
##봬
##쑷
##풂
##쉉
##굣
##슽
##툇
##늴
##쿙
##샙
##뀨
##꿎
##햡
##땝
##꿧
##퀩
##껭
##롓
##꺄
##섡
##괜
##꺅
##켙
##뢨
##늿
##욍
##햊
##숮
##꺌
##늰
##뭔
##탙
##쌴
##욨
##귿
##짰
##컅
##슾
##깆
##밨
##휄
##갼
##쫃
##첬
##뉵
##엊
##돵
##윾
##돟
##꽛
##괗
##뺙
##퀫
##쾩
##륻
##툿
##쪘
##렜
##긘
##뎝
##찯
##옭
##묜
##핳
##츩
##샅
##뼛
##쥉
##닺
##몔
##밷
##벋
##뺄
##엜
##롈
##곌
##왝
##갘
##댱
##쾁
##룯
##늩
##괂
##튻
##굔
##맄
##펼
##샜
##츌
##읭
##깢
##뇸
##듕
##삑
##꽐
##꿏
##엪
##읿
##죰
##컸
##떘
##곘
##햣
##쬘
##숌
##뀍
##섷
##촤
##늗
##솎
##픜
##큎
##뱟
##둴
##닜
##텽
##냬
##칡
##뢱
##짛
##욋
##껠
##겪
##닸
##핃
##춈
##쬬
##굦
##퍌
##쎗
##묭
##쩟
##릳
##릍
##훽
##맀
##췩
##쬔
##먕
##쵣
##녅
##캌
##튝
##릌
##즁
##쩃
##뻴
##낍
##뤳
##닯
##굘
##콙
##랱
##겆
##왰
##잗
##댛
##몯
##뉩
##싻
##톼
##ㄲ
##죕
##볓
##휭
##튽
##칳
##헰
##잍
##쩝
##븥
##챰
##쒼
##쟛
##읓
##씃
##쯧
##릘
##꽹
##늨
##헜
##꾿
##뽄
##퍅
##뭏
##홯
##몆
##뤰
##껙
##긑
##뺘
##휙
##닠
##댤
##짯
##퓬
##믁
##헿
##쾽
##룍
##쎕
##섐
##깸
##췅
##첮
##럄
##쏨
##졜
##땁
##폅
##칲
##앧
##섨
##얬
##뢀
##뉙
##쟙
##픙
##삮
##늡
##넖
##튱
##뿟
##잓
##뺐
##랕
##뻰
##픝
##솏
##팈
##섁
##핧
##땔
##꼐
##뎰
##왙
##껼
##풔
##숡
##껸
##뱆
##똠
##쀼
##뽐
##밫
##돝
##셒
##밯
##팉
##쭘
##핲
##핝
##횄
##컈
##혅
##톹
##솦
##귝
##싲
##솓
##뇓
##욷
##윛
##뮺
##럲
##궘
##으로
##에서
##이다
19
20
##었다
있다
##하였
##하는
##했다
##하고
##하였다
##하여
201
##으며
##한다
200
##에는
##되었다
대한
있는
##0년
##부터
##지만
10
##까지
##에게
##적인
##적으로
##국의
##되어
##학교
##8년
##or
사용
##면서
##들이
199
일본
##9년
이후
##6년
##7년
##4년
##5년
18
##들은
##2년
##하기
한다
##에서는
##하게
##er
##1년
12
##3년
##았다
다음
##으나
##였다
대한민
##리아
그는
##이라
##la
11
되었다
##00
지역
##스트
##되었
##는데
그리
##on
198
같은
프로
미국
다른
##된다
##주의
위해
##이며
##들의
시작
때문
##기도
##들을
그러
##in
따라
또한
함께
##하며
사람
현재
##an
경우
15
한국
선수
위치
##시아
자신
16
이름
for
##mu
당시
세계
##이나
영화
그의
##하지
##라는
197
기록
##레이
조선
사이
##mula
##하다
또는
국가
하나
가장
formula
경기
때문에
##en
그러나
17
##에도
##ar
##되는
했다
것을
에서
##스의
있으며
활동
196
##기에
된다
있었다
것으로
프랑
것이
의해
##라고
##리는
그리고
대한민국
##기를
역사
##지는
##일에
통해
14
##졌다
194
##at
서울
많은
##al
##랜드
것이다
##리를
들어
하는
만들
##되고
아니
13
##es
##스는
다시
10월
##하였고
3월
12월
4월
8월
##하면서
독일
7월
가지
##는다
있었
포함
다음과
##했고
여러
5월
대해
195
9월
##대로
1월
##ic
##이었다
6월
##등학교
대한민국의
도시
사회
하였다
##개의
##로서
제1
인구
##상을
시즌
모두
##이는
연구
중국
11월
모든
아이
##사를
축구
##라이
##회의
##장을
##니아
##위를
처음
정부
전쟁
일부
##보다
##이고
이루
알려
##성을
대표
##지를
정치
##어진
이용
등의
##is
으로
##리에
##he
2월
##이라고
구성
프랑스
등이
##대의
감독
영국
존재
위한
##이었
##도의
제작
이상
##자가
##it
193
라고
일반
리그
있어
문제
##부분
자신의
##력을
##도로
##나라
것은
30
작품
개발
국제
사건
##거나
게임
중심
나타
가능
##이자
기준
##리스
배우
##통령
gt
##기의
##시에
방송
동안
라는
이어
이러
lt
하지만
제2
##위원
이는
##0년대
등을
이러한
문화
이다
발견
##났다
새로
위치한
지방
전투
발표
##하면
주장
대회
같다
192
음악
##ou
##군의
되어
25
의미
##도록
대통령
##했으며
2010년
하고
##시키
##le
##리가
##자의
##리카
##ion
대부분
대학
##이스
##들과
##로는
이를
##이트
##기는
공격
##다는
영향
##기가
##란드
##었고
##로부터
##서는
번째
##되었고
##이라는
프로그
관계
결과
경제
##다고
##하였으며
##세기
교육
우승
##리그
##명의
구조
최초
##림픽
##km
태어
##el
특히
관련
미국의
##에서도
행정
사망
선거
유럽
21
진행
설립
##정을
##인의
191
##디오
그녀
이에
##와의
##자는
##성이
##자를
##들에게
참여
##도를
러시아
##으로는
시간
독립
이전
설치
##스터
##사가
이탈
##리의
형태
일어
올림픽
자유
부분
##화국
발생
##가지
같이
##re
기술
##스를
발매
사실
중앙
##므로
##렸다
다양
이것
생각
##자로
##om
##대를
수도
새로운
지원
주로
22
등장
##ol
##르는
프로그램
인해
##요한
2008년
##되었으며
24
2007년
23
##과의
##번째
받았다
##우스
참가
2011년
고려
소속
지정
있고
##라마
이탈리아
받아
##프트
성공
##식을
##했던
로마
##대학교
상태
##르크
##비아
##리즈
결정
2009년
운영
##st
데뷔
출신
##이션
계속
2012년
타이
매우
있던
##이지
일본의
아버
##다가
##et
##학자
##사의
운동
##도는
기원
라이
##스가
않았다
##인이
최고
생산
##부의
##에서의
가지고
##am
##FA
190
시대
##드는
2014년
##ing
주요
000
##전을
26
돌아
생애
아들
차지
없다
##기로
##명을
##하기도
##il
결국
아니라
28
##장이
앨범
계획
1일
스타
##해서
해당
##도가
내용
한편
없는
##으로서
시절
##남도
아래
방법
27
##ch
##스템
데이
##스크
여성
##되지
2006년
##처럼
하여
전체
음반
2013년
조직
출연
##군은
##하자
않고
후보
##운데
대학교
많이
##권을
수상
이유
100
##스타
##수의
국민
유명
##간의
개요
월드
가리
##인민
##사는
##ro
인터
##nd
따르
##선의
##화를
스페
마이
##수를
##us
##명이
##부에
##어로
##원의
##대표
정의
가운데
##대학
##원을
드라마
##민주
역할
남아
제공
29
##운동
##지의
이라는
##음을
평가
##위원회
##으로써
2016년
거의
2018년
##장은
다양한
각각
정보
대전
이라고
과정
##BS
만들어
표현
그리스
열린
이루어
연결
시스템
##자인
##사로
##장으로
생활
시리즈
모습
않는다
마지
##하던
##냈다
##이의
2015년
##지가
공식
지구
##수가
##머니
민주
##인다
바이
이미
##as
필요
가진
특징
출전
경상
##일부터
발전
항공
기능
이름을
##리고
따라서
##하려
마지막
##였던
##스와
지금
개최
##성의
##가는
##나는
작은
of
직접
대신
##력이
임명
인도
알려져
2005년
##ed
부산
##스로
높은
##점을
##북도
이야
##지에
철도
보고
2017년
##제로
##어를
##원이
##이드
분류
따르면
자연
##시의
##시켰
인물
나라
##ac
FC
결혼
오스트
영향을
브라
##문화
프리
##이가
2004년
진출
인정
##르트
31
##군이
##쪽으로
##대에
##상의
추가
학교
그룹
##제를
정도
활약
않은
##지고
##으로부터
되는
노래
지역의
그가
상황
관리
후에
아르
##있다
제3
제국
##ent
기타
인구는
졸업
공개
##해야
##id
50
초기
있는데
서로
변경
말한다
유지
사업
기원전
역시
여자
그것
방식
##니다
##선을
비롯
현대
크게
##했지만
상대
##nt
군사
건물
관한
이론
플레이
않았
하였
##명이다
##인민공
기업
##었으며
보여
건설
모델
##사에
완전
연합
##수로
##위에
반대
##왔다
레이
##전에
중화
##들에
##전에서
##레스
2002년
중요한
##인을
##치는
야구
##운드
##ur
189
공동
##계를
##원은
거쳐
##광역
##프리카
형성
승강
##인은
클럽
비판
##세의
기준으로
##지로
##ig
일으
##부를
기본
요구
자동
##대한
학생
##트로
노동
경기도
민족
지하
실시
만든
계약
##킨다
##어는
원래
##치를
##원으로
The
##ad
##적은
않는
##른다
##mp
##일까지
202
운행
##역이다
##되면서
도쿄
##문을
##장의
소련
목록
어떤
사랑
##부는
40
##수는
사이에
##특별
태양
시작했다
##하였으나
동시에
판매
다이
이르
명칭
싱글
##임을
그래
##제가
공간
대상
##군을
아닌
인간
지도
##od
전라
제외
2019년
개인
##거리
2003년
애니
여기
전통
##제의
과학
##ation
##리오
##iv
특별
##정한
국가대표
보통
혹은
컴퓨
##ot
지나
##피언
이때
기간
위하여
##스탄
##카이
의한
##진다
언어
##주는
##장에
##했으나
역할을
이동
월드컵
##이기도
최초의
##하는데
종교
##있는
##이었던
전국
##회를
처음으로
가수
##비전
##나다
배우이다
서비
2000년
도입
##대가
##체의
##초등학교
전문
##됐다
정책
기반
##BC
기관
마을
있을
경력
##되며
이적
개의
##대는
##단의
##자와
비슷
수행
##명은
기존
경찰
되고
달리
FI
소설
하며
태어났다
나오
##가와
바로
주변
과거
##키는
산업
##장에서
##독교
수는
##시마
##린다
##격을
##갔다
##드의
##시간
St
##성은
2년
the
##드로
모양
국내
경기에서
텔레
##호를
##광역시
##소를
어머니
아버지
컴퓨터
있다고
##물을
##서를
##이를
공연
##os
부르
유일
뉴욕
이끌
##트를
일반적으로
##동안
역임
노선
##중에
충청
##학과
##메이션
연방
지배
뜻은
km
가족
##기관
##혔다
적용
사상
##트의
##호로
##연구
##체를
챔피언
##스코
##적을
비교
##리지
TV
##ec
작곡
지휘
출시
동일
이것은
##방송
##무를
##도에
##과는
통합
사고
변화
##구의
오늘
##ra
이라
##um
중심으로
2001년
##ut
선정
분야
방영
##어가
##관은
자기
그를
기독교
종류
받은
##리와
우주
보내
##시켰다
##트남
대구
##드를
어린
##리로
##의를
##호는
작업
##위로
##하지만
##군에
열차
##고등학교
환경
애니메이션
방향
##마다
건축
찾아
가까
떨어
받았
설명
추정
2차
스페인
실패
FIFA
##트는
위원
##동에
지지
담당
없이
피해
되었고
##사와
때문이다
##체가
있다는
구역
그녀는
##크로
차량
어느
기념
데이터
증가
개념
##야마
규모
보호
상당
##조의
받고
##르게
이런
대부분의
교통
##경기
##글랜드
##쪽에
확인
##어의
##나무
188
##ia
##ir
##em
2세
관할
##학적
올라
##제는
자신이
조지
15일
속하는
이와
최대
##정에
공화국
나가
최종
##이로
수록
캐나다
##당의
인천
베이
##스에
##하거나
##종의
지정되었다
국회의
1년
두고
이상의
##인민공화국
스포
우리
1999년
활동을
##면에
##렇게
최근
1998년
다음을
##동을
##쳤다
##드리
이름은
등에
형식
##단을
##인으로
##상이
##메리카
전기
잉글랜드
##계의
국립
선택
없었다
하나이다
대체
현재의
예를
3일
서울특별
##으면
대하여
하다
등으로
뛰어
##회는
##스카
1세
국가대표팀
멤버
있어서
물리
걸쳐
있지만
##부가
평균
동물
##이어
##im
##성과
영화이다
조건
전자
##op
Ch
##인이다
##관을
조사
최초로
##움을
베트남
불가
텔레비전
예정
에너
북한
있었던
시설
##시켜
공산
아시아
마르
##기와
20일
논란
##심을
작가
10일
스트
구간
부족
##겼다
##교육
더욱
##단은
##일랜드
##치가
고대
##주에
##스턴
결승
도로
amp
내려
헌법
반응
##했다고
##oc
##원에
메이
유래
자료
##화가
크리스
##적이
표준
##중학교
남자
##호선
##했는데
500
##구에
지상
##ow
선언
정당
1997년
##개월
좋은
효과
##레일
선발
선출
명령
##시대
시민
이란
자리
후반
##자리
어려
점령
##성에
##버스
예술
1996년
연속
##ers
5일
포르
25일
30일
##시키는
28일
보인다
##학을
##렀다
대중
출판
##난다
1995년
소프트
크로
##주시
##자들은
##지역
##km2
거주
구분
3년
##라스
제2차
가리킨다
마음
##ag
UE
##민주주의
획득
32
60
##나이
##덜란드
유사
실험
있게
현재는
##un
승리
정규
##정부
2020년
연주
불구
오늘날
통일
##명으로
그림
지역에
UEFA
이름으로
35
이들은
배경
버전
2일
##내는
선수이다
##소가
네덜란드
세포
주민
##라도
7일
영국의
서울특별시
##mm
소유
페르
186
사무
이해
##ay
주의
1994년
##구를
입단
##한다는
##회에서
하이
##스키
8일
교황
되었
이유로
4일
조약
1992년
6일
언급
하나의
21일
12일
단체
##함으로써
전에
지속
##부르크
소비
##하도록
##학의
1990년
18일
##만을
##웠다
폴란드
정신
##러스
정확
그들의
16일
##모토
하지
17일
##으므로
분리
명의
이사
##진을
실제
아프리카
14일
이곳
##라의
목표
강화
26일
아직
27일
그런
제품
설계
1991년
은퇴
9일
것이라고
자치
언론
##비를
##관이
##자들이
##정이
영어
187
육군
##사카
회사
드러
결합
##ul
##cm
##스티
##웨어
##만이
남쪽
가문
제4
##베이
사용하는
##세를
23일
거두
아마
모습을
29일
22일
제한
공립
KBS
##철도
비행
##랐다
##원에서
스포츠
##이지만
북쪽
맡았다
##지와
밴드
불구하고
밝혔다
사이의
분석
##베르
인터넷
말했다
##되기
고등학교
성장
세워
##소의
런던
##ce
##상은
하나로
1993년
##스테
1988년
비해
광주
##지지
개봉
##프로
##단에
하계
11일
##했을
##불어
13일
의미한다
물질
더불어
알려진
##역을
##치고
보다
통과
이듬
##골을
불리
프로젝
##들로
19일
인민
독일의
포함한
##이에
##톨릭
방문
##가의
부여
##직을
##어서
그들은
연기
24일
복귀
식민
움직
##금을
##형을
중에
완전히
요시
의하여
##법을
##단이
##회가
제조
나온
널리
등과
외국
차례
면적은
##회에
##로의
발달
##지방
분포
이듬해
불교
##사업
##인데
소재
경험
프랑스의
##메달
70
집합
위에
1989년
치료
사람이
브라질
##정의
##스토
##계에
##선거
정식
##루스
스웨
##바이
##과에
슈퍼
조선민주주의
친구
자주
오른
##르고
여겨
바탕
못했다
##th
왕국
##시코
것에
##상에
확장
##ist
이들
##식이
##산을
영토
##점이
배치
제안
##트가
##체는
나머
동쪽
사라
##하의
##상으로
서식
중요
주인
전해
##ri
예선
노르
정도로
##아의
##식은
##시는
유전
##라인
갖고
마찬
수준
오래
##릭터
만나
지난
##조는
때까지
마찬가지
##레일리아
유명한
추진
남부
##었던
##로를
##ov
##소는
폐지
있도록
비롯한
알렉
많다
공항
해석
이로
승강장
##지에서
스웨덴
요청
바뀌
그대로
##화국의
작용
아카
않아
가르
알고
##가를
존재한다
라디오
유니
캐릭터
##TV
패배
가톨릭
법률
##디어
오스트리아
우승을
본선
자동차
강원
개혁
경쟁
프레
##관으로
##웨이
달러
##회사
##되었으나
##정은
파괴
스위
1차
아시
사람들이
특정
##구는
스스로
300
##위가
80
수용
##들도
관측
그녀의
##당은
45
##카와
경우가
스테
살아
##위는
##위의
##없이
##물의
36
##르의
강력
주도
삼성
이외
먼저
접근
##인트
외교
카운
선수권
과정에서
근처
서쪽
이야기
##도와
초대
##우는
##드가
경영
##기술
단순
제주
오스트레일리아
##선이
아일랜드
##부로
목적으로
##하라
##감을
여기서
##되기도
##규모
밝혀
일제
##주를
여름
##스에서
히로
##군과
다만
기초
##소년
성립
##지게
##인과
것이었다
##장과
그린
있으나
##받았다
들어가
##요일
일어나
가능하다
##NA
여객
##and
윌리
##센터
##류의
교수
##문에
중간
##ie
선수로
디자인
##10
한국의
##리트
##og
##형의
시험
##신을
##크의
가져
기여
디지
상대로
불리는
이며
##까지는
##많은
##est
결성
##사일
임시
##식의
기후
33
재판
고속
##오는
구성되어
사용한다
##하다가
지리
떨어진
문학
야마
비슷한
제국의
출생
아무
해결
##정보
##하이
##과학
##행을
1945년
##경을
##구가
때는
1987년
상호
해안
도착
##수한
##졌고
##력은
##이기
1986년
나무
##ard
황제
부정
##트워
##간다
거부
일종
##량이
수많은
번역
지하철
행동
않다
다르
의원
투표
##트리
상징
바꾸
생성
반란
제5
주연
카를
소개
필리
기록했다
훈련
##전의
이렇게
##자이다
##하였는데
방어
##ap
##고를
##물관
포르투
4년
엔진
파일
유로
통치
조각
##티아
##시를
대표적인
이주
북부
음력
발행
지역을
지냈다
의하면
천황
in
내각
처리
타이틀
##교회
체포
파견
당선
초등학교
준비
바다
##화의
제시
이루어진
##산으로
##량을
시행
##ct
##ab
보유
지역에서
활용
시작하였다
시기
마찬가지로
##전이
관광
계열
귀족
베르
동맹
##만의
##자에
혁명
##했다는
하루
만에
파리
##나가
것과
대응
윈도
등록
즉위
표기
##하기로
위해서
서비스
회의
보존
공작
따른
##시즌
1984년
##먼트
유대
##함을
근거
위험
감독의
1980년
부른다
형태로
윌리엄
내부
##량은
국회의원
1985년
해외
가정
시도
스튜
에이
##선은
##작용
##크라
##지션
##미터
대사
디지털
##부터는
##아시아
종합
좋아
표시
38
##으면서
안정
규정
멕시코
일을
지명
경상북도
파이
##니스
##면을
카운티
스코
중단
##업을
and
신라
##주로
##연합
##화된
끝에
바르
##성으로
##어나
대해서
개통
곳에
있기
비디오
1982년
사용된다
##ess
교회
중에서
오브
##습니다
사진
##전은
##조를
에는
##았고
##왕의
다카
사용할
##아가
##리포
있었고
그렇
##인들이
##세가
##워드
체결
몇몇
만들어진
##점으로
##어졌다
직후
주인공
남북
##당이
##ine
31일
##한다고
지적
이슬
금지
##도시
##학생
이름이
동생
나머지
만화
오사카
얼마
##가이다
대륙
##였고
다루
있지
취임
팀의
계산
경기를
185
##해졌다
센터
못하고
적이
물론
보수
##평양
미국에서
##문화재
##사에서
##관리
##대와
관련된
##권의
생물
떠나
제도
친일
##임스
살해
##버트
이집
본래
##ity
나타나
울산
중의
제기
경상남도
에서는
이스
##력의
강한
계승
촬영
승격
오후
조성
대해서는
##은행
1983년
2개
완성
사후
##디아
##로가
##공항
MBC
##국이
##토리
것도
34
##소에
엘리
##오카
##나라의
달성
못한
미래
##시키고
##서관
유일한
의견
뮤직
안전
##롭게
수비
##가로
##안을
평화
발사
정부는
##art
##내고
명예
##러운
중국의
정치적
위의
##생활
아키
전시
이용하여
가능한
각종
안에
충돌
90
종료
##력으로
부터
케이
연극
##20
180
##미널
동부
##자들의
비밀
##ep
아내
묘사
##인지
기계
제작된
영역
인근
##로로
옮겨
정리
##시킨
차트
##av
전환
간의
천문
##물이
최고의
위치해
네트워
##라우
위치하고
이루어져
##50
##티나
마이크로
##주교
고구
##분에
##소로
사이에서
베네
경우에는
##ell
##되자
필요한
이래
종목
주목
가까운
##치로
##량의
##ak
체계
아니다
만약
##피아
##적으로는
나누
전략
포르투갈
기획
##0년에
##전히
중학교
##수이다
만들었다
##려고
II
##치의
낮은
너무
##고로
부문
##로나
바람
일어난
세종
말을
가입
둘러
인식
##리어
합류
로스
신문
헝가
##산업
문제가
해군
##였으며
아우
##하에
##구역
##와는
전차
1981년
Al
제거
도시로
인디
성질
이슬람
##지도
그려
홍콩
건너
이승
##서로
근무
##분을
뒤에
##니는
후쿠
5년
실행
전달
미술
전라남도
에게
##조가
400
갖추
집중
외부
연장
상업
1979년
교체
그해
##당을
##국은
경계
##권이
세르
되었으며
##igh
##승을
성격
##메이
##단으로
##점에서
37
##관의
관계를
##ud
통하여
실제로
184
에드
문제를
##되었던
최소
마리아
##학년
##인들은
##로스
##민족
##ip
부모
##단체
정착
주었다
서부
공급
이번
바탕으로
반면
출신의
##ang
마련
불린다
겨울
하기
여행
기존의
구조를
de
수가
##즈의
##석을
작성
##ill
제목
##프는
39
블랙
저항
제1차
국방
사회주의
무렵
오스
전반
##라노
가는
핀란드
터키
##준다
유리
##리스트
정부의
제외한
##배우
##산의
기록을
보이
##래프트
고구려
항상
강조
##만에
불러
##교의
오르
게이
##낸다
1973년
소프트웨어
##그룹
사실을
##리포니아
주는
일반적인
##if
알렉산
##세포
넘어
사람은
무역
##론을
미사일
확대
전개
젊은
총선
출발
##비가
레코
그래서
허용
##전쟁
##사령
##동차
시의
관찰
득점
매년
자체
##ob
##CA
사령
인한
##크는
조선민주주의인민공화국
수학
##상과
제6
##ue
기능을
삼국
##면의
의사
유형
##데미
입학
생활을
##두고
죽음
트리
1972년
적극
에스
이후에
나중에
##시가
보면
문서
재직
합병
왔다
##세는
범죄
원자
덴마
보도
장기
##원과
##대회
역대
캘리포니아
뿐만
시대의
##FC
##까지의
##메달을
편집
사용하여
경우도
민간
일이
인사
##8년에
만드는
##기업
##모리
계약을
##시로
여전히
##일러
채널
평양
남편
##0년대에
단계
충청남도
통신
측정
해체
##개발
##ern
높이
##졌으며
3개
아나
##라운드
183
하게
보여주
루이
포지션
제정
##세이
1974년
하자
올랐다
##가가
사용되는
붕괴
신경
전사
##기고
##호가
In
함수
##장이다
##종이
해방
마쓰
나는
##보다는
농업
마사
##과를
##되었는데
Th
충분
##로서의
##스포
##에게는
##ub
변호
##파의
식물
##영화
블루
성우
밖에
녹음
쉽게
귀국
##적이고
##테인
등은
에도
##밖에
대회에서
전투에서
화학
##주가
특수
시청
##오프
##해를
노력
개정
모스크
##이던
사람을
요리
남동
증거
확보
##데스
정상
강원도
##ev
1963년
라이브
st
구축
제임스
##6년에
55
아름
회원
받아들
구단
판단
##드와
외에도
자본
동계
태풍
채택
##레이션
점차
초반
떨어져
길이
48
42
동료
나폴
##티브
위협
##ount
감소
가리키는
프로듀
아랍
침공
##all
건강
피아
시장
라틴
##사건
다섯
말이다
몽골
메이저
자리를
뒤를
시내
##틀랜드
##라비아
수립
승리를
강력한
참여하였다
국왕
하면서
##실을
64
##고속
없어
##해의
있었지만
폭발
마리
##았으며
증명
##사회
##화에
##eg
책임
##대전
수입
탑재
연맹
##의로
조정
편입
##리기
공공
사례
##신의
플로
등에서
시기에
데이비
시작되었다
LG
##시대의
공격을
알아
사용한
##었으나
집단
##7년에
개편
##구로
부근
150
세운
##프가
지금의
고전
##무원
##세에
얼굴
잠시
41
검은
관심을
##부와
##사이
인수
불과
##었는데
1971년
##물로
##사키
사회적
수정
신설
##대에서
##문이
카메
태평양
당시의
종종
##ne
원칙
하늘
글로
제7
1975년
##하려는
##마스
에피
##트라
##상에서
사람들은
##법원
오리
##식으로
네트워크
##당에
##일보
##ice
선의
75
스튜디오
경향
##키아
만족
이것이
##다운
고양
나뉘
의해서
목적
인간의
뛰어난
기억
회복
##세기에
1개
##로운
편성
##력과
홈런
에너지
그곳
##라엘
##르타
10년
Un
근대
##관계
자신을
대형
장애
한다는
정보를
주장했다
사망하였다
간주
이끄
인기를
방식으로
아카데미
죽은
00
##비는
문자
이고
1969년
##싱턴
본관은
개선
저장
받는
##니어
##ran
##공업
##점에
부인
##리즘
##시오
##협회
##백질
사실상
거리
사람의
##면에서
##자치
태어난
암살
##설을
##받아
##당한
어떻
##케이
4개
발표했다
보이는
일종이다
##셔널
나카
##약을
중화인민공화국
이끄는
시티
붉은
쓰인다
##ST
##our
##제국
대립
설정
힘을
##ian
프로젝트
##류를
비용
이스라엘
CD
##력에
##어들
대규모
유엔
##어져
##명한
갖춘
43
세이
##되었지만
작전
##하고자
동음
지진
설립된
필리핀
##정책
애플
##시와
##터테인
머리
오픈
박사
설치되어
통한
복잡
##룬다
흔히
##ive
스피
본격
은행
K리그
이중
속에
기사
비교적
##다이
구체
아주
나오는
##ong
##테르
##분의
지역은
3차
탄생
##하다고
했지만
임명되었다
##어와
때에는
우선
1970년
인하여
투수
불가능
기자
남성
##형이
내에서
전역
##ea
아르헨
형태의
않을
##화는
아시안
##어도
조금
후손
##동의
##ert
재정
##차를
##했기
##선에
동음이의
47
어떻게
수출
헤이
하였고
##슈타
형제
원작
고종
유도
##법의
있었으며
181
외에
전후
발매되었다
은하
##스리그
1978년
위치한다
베이징
##료로
공부
br
과정을
##인들의
##ss
윈도우
##자들을
##여자
수원
모스크바
이전에
내용을
##크라이나
브랜드
19세기
행사
하는데
##바르
속에서
나서
시대에
##형은
179
##에르
##하나
SBS
한다고
##ry
가격
청년
중화민
44
프란
구성된
##권에
오토
비난
##지기
1976년
1948년
팀은
대상으로
물러
##부에서
2개의
사는
##ort
있었으나
뉴스
도움을
전혀
##자에게
##려는
##OS
1962년
업무
##도르
1964년
때에
Mar
문화재
##슨은
소년
짧은
##신이
##소에서
##품을
유명하다
장착
비율
##드에
##료를
단일
박정
보급
##었지만
클래
핵심
했고
##제에
##서에
1위를
이탈리아의
이하
참석
까지
##국을
중반
##족의
나이
한때
워싱턴
카이
##군으로
1949년
##나이티
우크라이나
##이란
##네시아
뜻이
##라가
##로드
스코틀랜드
역사상
되지
##해진
잘못
사용되었다
정도의
##일을
160
이집트
금융
시각
북동
##ge
등장하는
고정
원정
창설
##권은
##이었고
되면서
확정
가로
무기
무장
열대
협력
공유
##다면
##인에
베를
산맥
##법에
##브리
##저우
철도역이다
Ar
북서
##지원
버스
유나이티
토론
54
연산
수여
항복
##지면서
##세계
발견된다
삼각
신앙
##적이다
절대
스파
46
세계에서
##인민공화국의
전용
##프의
교토
뜻을
##서의
태어나
##간에
노예
1968년
조합
줄거리
지닌
오히
청소년
활동하였다
내에
##리학
스크
##수와
했으나
현실
##ight
하드
세우
단백질
##미디
##드에서
##점은
1965년
관할한다
베이스
주식
만큼
솔로
북아
##추어
그에
갈등
확실
##리케
육상
##항공
추측
권한
##유럽
인공
##번의
##았던
전설
##유의
모리
에어
##겠다고
계급
오전
고향
##시킬
##자이
1960년
서양
##BO
오랜
##예술
대항
얻었다
동일한
응용
투입
정부가
##함에
##ant
##30
현재까지
건국
##버그
적은
##받은
그것은
넓은
##체로
고등
예상
##역으로
51
다니
세웠다
플랫
##음악
슬로
##1년에
소수
맡고
감염
출마
타고
1977년
플라
##체에
일본에서
있었는데
##하려고
아침
만주
멸망
광고
없고
##동이
##스럽
아메리카
정복
뜻한다
마드리
전주
##ib
선고
##의의
##경에
생겨
##교통
##로도
##ect
##시티
##같은
마침
수사
김영
##구와
##무라
군이다
남서
마이클
식민지
구별
##산은
강의
##경제
##하마
##도에서
Count
거대한
했으며
됐다
##로그
포지션은
##다른
1946년
##시설
##이었으나
나와
52
그에게
이끌고
창립
신인
오히려
##서가
전라북도
##ich
추정된다
반복
##면이
저지
행성
벨기에
Com
##당했다
1967년
관심
장악
거절
##하다는
##후의
투자
##경의
요한
판결
##ew
러시아의
##비치
붙여
훨씬
시간이
경주
길이는
대수
지식
##호의
아테
PC
심각
원주
법칙
##일의
운용
보였다
##리노
국가의
기반으로
Sh
요새
경성
##국에
1950년
##안에
에피소
로버트
##경찰
이제
앞서
##나의
학문
의료
약간
차지했다
사용하고
##색을
세인트
아르헨티나
##리게
어렵
##ast
활발
팀이
포도
##면은
선생
후지
##4년에
경기에
대비
##아버
##ain
장치
건립
취급
철학
##사인
##소프트
##났으며
##가에
발표한
시작한
생명
롯데
##용으로
오래된
공산주의
공포
간단
연재
계획을
##문학
##화로
소비에
레드
##조선
##up
끝나
##법은
가능성이
살고
김일
도움
##전으로
백작
코드
이후에는
이용한
스토
An
양성
한번
##초등학교는
##시스
SK
부활
##체육
점에서
머물
병사
역을
이른
차이가
말레이
159
##즈는
온라인
182
논쟁
##보드
방출
시즌을
청나라
##기에는
아파
약속
##받고
##산시
자는
형사
검찰
##언을
##자기
건조
##리우스
##축구
##음에도
동남
##종은
위해서는
##보를
##ON
##2년에
결과를
강제
얻어
##비의
##전문
세르비아
대공
이르는
Sp
##경기에
##니의
영입
주어
합의
65
되면
앞두고
##판을
헝가리
요코
US
점을
##소와
인터뷰
상당히
팀을
챔피언스리그
이것을
##렸고
##ord
그런데
통해서
56
방향으로
##타를
독자
##메리
미드
보는
자격
##19
베를린
지낸
제출
##io
플레이오프
하면
49
##바라
##연맹
해서
##신은
해당하는
대표팀
발생한
##만큼
##더라도
##네스
타이완
5개
##히는
##선수
비록
총리
##스러운
##80
지원을
처음에는
전쟁이
출입
##만은
프로그램이다
무엇
##3년에
부상
##ont
Pro
다음은
프리미
개봉한
반발
장관
플랫폼
웨스트
##나와
##타이
규칙
미디어
보컬
##프리
##5년에
주연으로
주고
의회
##류가
##분이
보아
##조합
민주당
##조에
미나
##천시
사법
양자
##중앙
브리
##누스
##ens
##수에
##일본
County
재위
초등학교이다
178
국무
##AT
##지며
##자들
트레이
거래
전쟁을
##쿠라
##민주당
때의
이유는
53
이용해
취득
이야기를
그것을
##9년에
개시
이나
##사단
##술을
##12
시작하여
to
빠른
##산이
이었다
이익
아들이
##지인
헨리
##여서
구속
##정으로
중세
##화와
미니
이민
호텔
##16
높아
통제
##AR
##박쥐
기록하였다
##동으로
1961년
1940년
대략
전공
한반
번째로
아미
##키스탄
##켰다
##지이다
##부인
##데이
알게
공화
##공사
김정
천연
##ly
##형으로
두었다
##타르
각각의
가을
##령을
노부
엔터테인
흡수
도중
장식
##ER
##노동
2면
##드시
##어진다
시간을
대성
1로
그러한
주교
하위
보조
전철
혼란
박물관
이성
##주와
이전의
포켓
##일은
통계
올리
##트와
신성
##수록
프로세
니콜
##세대
수송
방법을
##스케
600
헤르
속한다
##조사
코미디
시에
포위
1966년
반도
받지
##지자
명이
##치아
생긴
왼쪽
##국에서
##의회
말았다
##플레이
##행위
발표하였다
반영
99
자이
##소송
##프레
##oh
보냈다
국제공항
지붕
##이었으며
탈출
넘는
선교
##야구
##보는
포함되어
빠져
독립운동
포기
음식
##주년
소장
##미야
##병을
서버
##머스
##ok
부임
사태
채용
##ys
진화
소비에트
##마의
동의
800
##번째로
##선으로
##통신
받게
도달
달라
저작
트로
수상했다
##베르크
66
##ter
##질랜드
분쟁
대기
때부터
농민
아사
##마트
##리아의
문헌
##성군
선보
금속
쓰는
챔피언십
창조
2000
곳에서
##ate
공식적으로
##음이
사단
합격
사건을
크로아
제8
작품을
국경
보장
콘서
경우는
오른쪽
알파
##법이
나치
사운드
##ik
선수가
임진
##들어
##석이
앞에
이들의
일정
잇는
##안의
공을
성적
아라
사립
소녀
출간
##리나
선거구
1위
FA
##해도
경기는
훗날
기술을
종류의
트랙
뉴질랜드
도망
1944년
오페
##관에
성능
승진
인도네시아
것처럼
히데
##기념
##물은
##uc
하나는
브루
없다고
3개의
지니
Le
검사
예측
##문은
##ff
##리히
명명
##에게서
동작
요소
##퍼드
##아서
1941년
##율을
시작으로
자살
그레이
운전
카르
##문의
##였으나
km2
##마르
##없는
##국민
공통
라인
##크를
상승
##우리
스위스
고용
120
각본
샤를
##차로
이뤄
다르다
했던
동원
##마이
않았고
스티
등급
공군
##시킨다
변환
해양
##에만
운동을
내의
장군
합성
방영된
주관
진입
반드시
후에는
##니아의
테이
자세
##차례
##하였지만
가서
위반
##증을
나타내는
텍사
논란이
지키
##님의
성인
회전
차이
갈라
그레
동아
수집
열렸다
논의
복합
##천군
##으로도
보낸
진압
제대로
##기간
유사한
특별한
2012
죽었다
창단
##공원
승인
탈락
사망했다
출신으로
이룬다
제작에
페이
##씨의
위성
중이다
기록한
##개를
1980년대
강점
자녀
##ust
82
##리다
최다
어떠
역이다
조작
하였으나
58
체코
불법
집행
파라
후속
20세기
제어
콘스탄
출장
##투스
해에
##차가
지방의
국도
##시험
인접
다수의
57
존재하는
##이므로
##론의
왕국의
인기
사용되고
선조
##생을
스미
발매된
참전
상륙
한국에서
황금
덴마크
세력
##되면
둘째
생존
##적의
##패를
깊은
88
##동은
그와
국회
##모를
개신
벡터
여기에
형태를
끝난
1958년
##겠다
##씨는
##왕이
충청북도
##계가
맡아
연대
저서
빠르게
학술
##지컬
이시
##end
돌아가
방정
대학교에서
갖는
되자
의존
역임했다
인종
풍부
##상태
##카이도
항성
엄청
체제
특이
72
어린이
상품
##미를
제이
남은
연출
왕조
좌우
해산
이후의
177
데이비드
포켓몬
조별
흘러
교환
분할
1956년
베스트
이후로
개최된
DNA
##교를
##재를
단위
1939년
방사
##질을
##리우
사건이
발견된
예수
박정희
것이며
##명에
##기까지
##라이언
하였으며
동성
2008
들어서
##조판
계기로
##국으로
##물이다
##바로
정확한
##겠다는
##공화국
##뿐만
62
능력을
공업
보안
총독
원년
##미는
##트에
받았고
피아노
차별
아들로
1일에
군주
피해를
##들이다
카드
나뉜
목소
빼앗
둘러싸
트랜
##학에서
##면으로
지냈
##리에서
지도자
맞이
##전과
전파
##se
지급
##그라
니시
프로그래
희망
시카
##석은
##티노
2010
##가타
##미의
주둔
알려졌다
마지막으로
이기
De
일찍
민법
95
##통을
진보
군대를
대개
파악
프린
미군
잡아
##ph
##라를
아버지는
오스만
무덤
불렀다
##계획
##항을
득표
모여
##선과
##쿠스
##AS
##미가
지상역이다
급제
아스
한국어
기대
미야
영상
1000
변경되었다
6년
##틀러
##주었다
##고속도로
지어
신뢰
##기에서
조선의
##ure
늘어
##40
실질
##ld
개발한
노벨
뜻하는
1990년대
어떠한
썼다
##체스터
63
높이는
170
메인
2009
가졌다
##국제
1947년
독특
준우
한정
##터는
서비스를
배출
##식에
##11
마치
관료
##으니
##계에서
##방을
당시에는
않으며
학습
##조직
프랑크
0으로
수영
##마을
일부는
네이
한글
창원
향상
##고는
1919년
정책을
You
프라
##산에
불안
##te
새겨
라고도
대통령이
시즌에
평가를
제외하고
여객철도
##기압
##요시
포함하고
##터를
부산광역시
메시
테러
무게
받을
의혹
##비스
##온은
작품은
중학교이다
##메리칸
출범
목표로
추산으로
##포르
##프를
##iz
##연히
부르는
##계는
화물
그렇게
예비
##사관
가나
광복
##개혁
1959년
##qu
##당과
76
작품이다
후기
##화되어
활동했다
##주에서
대한민국에서는
1942년
AT
안드로
##BA
모양의
도쿠
부대
행렬
##선에서
##장인
넓이는
보관
68
글을
단독
지내
##앤젤
리처
효율
WW
올려
마침내
치러
##kg
올랐
함락
자신들의
전통적인
녹색
그들이
반대로
##게임
##디션
군인
리더
4개의
고유
임금
학위를
교육을
잡지
포항
하나인
골든
갔다
##사무
KBO
##터리
로켓
##단과
그때
재배
##평가
1954년
67
극장
Int
가스
쓰이는
2011
2013
연구를
로스앤젤
##곡을
나이로
##자료
##이센
일치
이름의
대부분은
역으로
지은
프로그램을
Re
법정
방법으로
노스
되며
바라
점점
제일
##무부
마이크로소프트
당초
##오스
모아
구현
없다는
합쳐
##ind
7년
역사적
관계가
나왔다
받는다
##으로서의
처형
85
오랫
최우
##IA
##락을
것이라
골을
평안
선거에서
완공
플래
분열
##거운
1943년
아이돌
개막
##트에서
1952년
##ock
의무
##ial
##브라
활성
기록이
뜻으로
신호
터미널
##름을
누구
##이와
참고
포함한다
순위
문제로
주장하였다
AFC
마케
명확
##무늬
마크
주전
##입니다
현역
##되었다가
완료
우려
페르시아
것이라는
분위
생태
스탠
AP
##건을
메이지
성을
연관
의미를
간행
소송
2선의
확률
##치에
심리
펼쳐
와이
임대
##르가
##주의를
오랫동안
3세
향해
##되었을
##레옹
희생
##하였던
등장인
일본에
지금까지
잉글랜드의
편찬
##종으로
59
속한
##man
##ae
##클레
영화배우
언제
없으며
##실은
해리
##ack
그래픽
용어
스페인의
##라와
아테네
말에
텍사스
1920년
스카
제9
진주
74
신청
##EC
이루어졌다
보병
원소
침략
세계의
프리미어
사유
조절
직업
현상
##방의
가지는
취소
##재판
시인
##과정
내용은
예정이다
77
추천
162
##원이다
1953년
##ith
나타난다
활동하고
##왜란
##에른
망명
##일이
주택
경제적
##장군
무너
조종
##경이
정비
나폴레옹
뮤지컬
##났고
고속도로
포함하여
##하였다고
쓰고
##평균
SS
영업
혼합
##우주
대표하는
있음을
##책을
명칭은
안에서
공헌
다스
조지아
##진의
도시이다
시리아
##복을
##현의
##텐츠
만들어졌다
루트
감독을
##들에서
국민의
##one
동양
안동
##km2이고
보물
다케
임진왜란
클라
통상
공개된
무시
한나라
유한
개입
98
고문
기둥
##토의
졸업하고
##제와
##시키기
성향
##동과
##치게
로드
유행
##임이
##박물관
실현
자전
군의
바깥
정지
무한
##해가
거두었다
161
이르러
장교
##신으로
궤도
정기
1957년
선정되었다
He
개조
레오
##시리즈
##리안
변형
나고
##해져
##산화
바이에른
스키
저녁
##시에서
상위
##르기
제작한
HD
찰스
감독이
멀리
질병
96
인쇄
협회
##사이트
##주의의
시작한다
유형문화재
IS
기울
리버
##총독
음악을
인권
이루고
연결하는
##세로
1955년
시드
경우에
도와
빅토
계통
발굴
신학
87
작업을
소방
##종을
##생의
시작된
사임
시상
적절
##들로부터
이라고도
명을
확립
단편
2014
유일하게
나뉜다
##뮤니
마무
시나
위원회
700
도서관
어디
중인
근본
유기
주지
##화되었다
감독으로
##류는
##VD
새롭게
해당한다
Me
침입
2016
규모의
알고리즘
시카고
오프
##드라
6개
않게
느끼
##보고
활약을
거듭
73
##ment
IC
데뷔하였다
의학
##크가
철수
김성
따로
지켜
처벌
1면
86
출연하였고
지시
##루가
사람들의
가와
인구가
상하이
접촉
##령이
##슬러
가담
1970년대
등판
일부를
후보로
개설
##화한
##페이
승객
바뀌었다
얻은
통산
많아
아티
영화는
노르웨이
특성
티베
##진이
##ove
동해
##대부
발견되었다
루이스
혐의로
아름다운
길을
##국가
프로이센
##이었지만
다다
##에이
##조로
미드필
이혼
부분을
지금은
개신교
라이트
##내에
조선시대
사우
등장한다
##린은
마르크
176
사용된
1만
브레
중에는
##ore
부상을
앞에서
도요
##론은
공사
##고기
인디언
행위
크로아티아
단어
##드레
##각을
다수
시위
크기
어깨
다운
##표를
##기록
상당한
##베르트
나타내
내가
##진은
프로듀서
주최
##네이
어려운
개칭
곡을
##터가
번의
보스
학살
8강
더블
발발
후계
강등
드라이
올렸다
특정한
화성
로봇
##디움
태양의
다음의
제공한다
해상
저술
추구
서울대학교
##판이
자리잡
의식
말레이시아
민중
인지
##인도
상대적으로
##스럽게
다르게
매일
##고등
##동생
##ond
##ational
교향
일어났다
##로마
2007
스마트
##동맹
놓고
장비
##구에서
##퍼스
유럽의
소련의
미드필더
일으키
##자로서
지역으로
상태로
일컫
집권
비상
전형
##문이다
##석의
역은
독특한
가치
장남
절반
중부
##슨의
가게
##토니
61
단지
##하므로
이들을
프랭
NH
##구치
##체와
##베스
임의의
##혁명
##ory
선전
유고
출시되었다
Pr
내셔널
해도
대부분이
가치가
벌어
##원군
##섰다
곡은
부하
##영은
화재
대의
##함과
##타로
##트릭
##격한
##ath
받았으며
터널
초기의
후원
175
김종
코르
탈퇴
가이
받아들여
프로토
정치인이다
다소
비례
왕실
전송
작곡가
##피스
##였지만
맡은
성적을
##생물
나누어
영웅
존재하지
외국인
입장을
지위를
##층의
아이디
에드워드
편이다
해야
##되는데
04
원인
##부대
##0만
분명
싱가
천주교
한자
##사우
그로
심지
92
1936년
공연을
곳으로
재건
##니가
##터의
농구
루마
투쟁
##AM
제공하는
속의
하에
##스트로
비트
##자들에게
보았다
163
타이거
화산
##보살
잠수
제10
정차
##양을
사마
타임
홍보
성공을
중화민국
##BM
상황에서
##론이
##점의
변화를
on
Sc
##너스
김대
연예
##하지는
가문의
보유하고
파트
대통령의
##색의
상을
집안
사업을
승려
일시
##씨가
한일
##치지
Be
000명이다
오카
준다
164
도모
투어
##바일
이름이다
자극
발음
WWE
오직
노래를
이른다
히로시마
소속으로
1번
듣고
##어야
만들고
전직
##경은
공주
행정구
살인
##명과
##왕후
이전에는
Bo
CP
공중
Am
##ivers
나아가
세력을
2018
97
##주의적
주간
설립되었다
왕의
장수
몰아
못하였다
##야의
##포를
##법으로
##행정
기록은
발언
##차는
Te
##ug
##자키
정권
호소
##니즘
필요가
블라
사우스
코로나
##타는
전력
화이트
크고
##장관
기회를
기다
남쪽으로
쿠데
##역의
엄청난
십자
선임
도시의
이로써
##영의
심각한
1938년
나타나는
스프
있었다고
내렸다
레알
돈을
번호는
필요하다
들고
140
조선총독
수상하였다
신화
진행되었다
브라운
반란을
갖추고
금메달을
2015
지구의
공화국의
설득
##함이
경남
정교
1960년대
##왕은
89
폐쇄
해발
##제도
1의
일정한
표면
##타카
밝히
##었기
##미르
떠났다
병합
##티오
가진다
바닥
##사전
사냥
대리
밀도는
남극
일어나는
돌아와
동방
사전
다리
분노
나타낸다
시스템을
우리는
전까지
##슬링
연고
참조
##시장
##코스
분해
##역이
자이언
##에서만
작품으로
의심
전부
아메리칸
##었을
##주고
부친
태국
유치
##색으로
파워
##m의
##aw
유나이티드
##타운
맞아
목록이다
78
권력
156
도전
##파는
천안
1951년
못하는
유학
회장
##문제
자라
징역
드래프트
암호
조카
Con
피터
##강의
세부
##파를
미국과
##자동차
기상
수익
있었기
##일로
##연을
158
##페이스
1918년
자리에
##과대학
되는데
##리그의
내용이
리처드
Co
효과를
웨일
적합
DVD
유효
##듯이
디스
능력
세상을
##었다고
##우의
##별로
대체로
로스앤젤레스
##대장
##계약
전면
파르
##비트
눈에
시사
##격으로
사용자
관여
역사를
앤드
##크래프트
16강
소멸
점이
##ood
09
벗어나
왕이
동북
두려
##백만
##ber
##ary
북쪽으로
165
에르
크레
패션
##IN
##아이
1937년
속해
재개
비롯하여
링크
완전한
전신
Ma
체육
##lan
사람들을
엔터테인먼트
가공
얻을
##ies
강릉
밀려
수리
##로와
JR
커뮤니
##족이
1932년
나온다
05
com
01
구입
기소
돌려
##ical
운영하고
곳이다
##주군
끝내
상대식
##이치
현지
사용하였다
경기장
드래
대통령은
사실이
여겨진다
여러가지
올해의
##루를
만다
성남
선수단
동안에
부분이
특징이다
##가시
차지하고
연습
1914년
명나라
본질
사망한
설치된
##이라고도
지니고
논리
재학
OS
스탈
##스트라
168
명령을
##리언
##했다가
수석
연평균
무사
게다가
완벽
위키
글로벌
##지마
##종합
##타마
히틀러
데에
##개가
##거래
##목을
연구에
93
수소
임무
145
Joh
뮌헨
발간
쓰여
1930년
전한
전쟁에
프리드리
논문
신체
##되었다고
여섯
발탁
최우수
71
166
배포
인용
이끌었다
불렸다
않지만
##인들을
##루는
가슴
화려
##본부
##ick
##파가
##AN
느낌
##식과
##활동을
끌어
##sh
이후에도
조선민주주의인민공화국의
속도
호는
말하는
세계적으로
시리즈의
탐사
##공산
그리하여
al
re
의도
측면
하느
##신문
Gr
Wor
우수
##다란
##례를
##더스
##망을
2017
My
##비히
##학자이다
작동
토지
이들이
69
비잔
상속
서구
즉시
환승
이른바
행동을
##에선
약칭
##age
섬의
3대
하기도
주장한다
맨체스터
세웠
##pe
##리며
##동물
순간
10월에
##담을
##오의
남아프리카
부진
위로
전동차
2로
방지
84
복원
스케
였다
일부가
발생하는
창작
나라의
Sch
홋카이도
##고가
Ph
지지를
참여했다
##분으로
##질의
가수이다
디스크
##즈가
다음날
백제
종사
##처를
1인
접한다
##ence
들어갔다
운영하는
크리
##련의
어머니는
높다
2006
순환
주기
구글
멀티
##만한
관련이
수요
엘리자
권력을
이명
싸우
노출
입장
자금
##비로
위상
유배
코치
대한민국에서
08
##보호
157
개체
사항
책임을
Br
구매
빌보드
양의
##린의
모바일
않으면
책을
원주민
포트
부분은
세리에
선출되었다
말이
연간
이루는
##고의
##하시
##OR
위치를
벌어진
항의
##기구
이상이
숙종
크다
20년
질량
대회에
분자
선박
79
없을
##코프
8년
##비에
테마
##데르
##ver
당시에
만든다
형식으로
프로그래밍
문을
파크
##계로
사퇴
세월
어항
기록되어
로마의
열차가
07
달려
재임
남겼다
내세
덧붙
만한
미리
##펙트
##나카
아들인
언덕
초에
남아있
Se
했는데
##레나
대동
동쪽으로
일은
##영을
전쟁의
오페라
MS
장소
전문가
도덕
미쓰
##공간
##OM
갑자기
나들
##산군
##ire
나타났다
그것이
테스트
##이닝
##시스코
하인
##질이
83
메달
요코하마
개방
물을
이웃
카라
##연대
##조건
##클리
게임을
입고
##루의
주장을
목포
위에서
2번
##공신
139
아래와
올스타
##페르
일으켜
부동
이자
##법인
올림픽에
정체
##등의
마무리
##서와
아오
##서양
스티븐
폭탄
##투아
싸움
##등을
##기지
상태에서
왕조의
##학자들은
팔레
방법은
상관
오다
##렸으며
근처에
꾸준
명단
히트
전쟁에서
1935년
하여금
94
이재
##키의
##게는
##키가
##결승
분야에서
후쿠오카
관직
##는지
##어버
1910년
나고야
대장
이즈
참가했다
복무
알바
줄어들
154
나왔
1924년
오키
##노스
##land
개국
##레인
서쪽으로
당나라
되돌
경기가
대표로
내놓
추가로
조건을
호주
상실
입력
최대의
##AC
지속적으로
보험
양쪽
코파
##안이
##만으로
스타디움
국정
대칭
보건
한성
확산
##되어야
이르렀다
보스턴
##해군
##범위
가상
고위
방식을
소리
##포로
미국은
변호사
사도
##ame
기구
청주
1933년
받아들이
갖는다
##츠의
##았으나
3월에
##행성
후보가
Ad
동경
초기에
##IS
가깝
재생
##소설
##되지만
2019
##왕을
##베리아
세계대전
방해
시가
##파로
위대한
전투를
격파
들면
##라고도
Wh
분기
주에
수의
##물에
167
복잡한
공장
엑스
거짓
함경
연결되어
로렌
문제는
단순한
우에
##관광
##평을
##받는
가마
km2이다
03
바둑
110
석유
없게
전남
##iss
액션
##방향
역에서
1934년
개찰
##달러
이적하였다
1회
클레
정치인
##천만
문재
태어났으며
배열
선포
172
##름이
##주의자
155
##부사
사랑을
대량
중추
칼리
##감이
##하여야
의미하는
포스트
##IC
기록하며
직전
프리드리히
##우가
개별
152
말로
##치오
Col
##아르
전북
##미니
##역은
작사
교류
모터
##ile
##역에서
##타의
##호에
상황을
앞으로
쿠바
필수
##조차
##코의
입단하였다
사막
마음을
폴리
역임하였다
##속에
##테이
##발을
순서
##중한
포함하는
이온
##ish
그렇다면
Univers
탄압
##인에게
##대신
그녀가
결의
소식을
##전에서는
##도서관
##판은
ch
서술
있으므로
화장
보여준다
##여래
본격적으로
##크스
9월에
사용했다
별도의
검토
지중
맞서
사건의
해설
##보험
충분히
그들을
##베리
06
골드
추방
##양이
##lat
81
##act
따서
유통
후인
12월에
노무
인조
자원
아래에
재능
##정치
##로서는
##ace
대화
직원
화가
##석탑
##감독
##되게
독립을
메모리
1928년
보이지
흑인
##프랑
##환으로
대상이
단순히
긍정
신의
##공을
강남
##그램
밝은
정수
그리스의
복음
AC
향토
##ID
사람들
바르셀
##느냐
이외의
전화
##ann
힙합
밝혀졌다
##지니아
출연하였다
특징을
제도를
영화제
사건으로
음반이다
명칭을
공산당
노선을
##슬라
가까이
공원
153
여성의
개념을
캐나다의
신도
##스팅
##ft
토론토
탄핵
##ES
넣어
편의
박근
자랑
##렬한
##ide
행정구역이다
북극
Tr
되기
태조
최근에는
오늘날의
무대
##ah
아버지의
모토
##가락
뛰고
문제에
##베이스
나들목
##등급
성경
손을
의정부
##미술
도쿄도
검색
암컷
##우를
SC
##율이
매주
##son
##연의
알레
##즈를
##대문
##독립
게임의
계속해서
인천광역시
가속
사건은
101
행정구역
2층
인기가
##버드
Love
열리는
아버지가
안내
##사이다
##중을
영구
일종의
그곳에서
달하는
업무를
우리가
##친다
cod
개량
그라
대법
부속
천체
##기인
인도의
올림픽에서
기병
주력
##아나
##했었다
174
몸을
1931년
02
벼슬
시조
식품
부르고
가난
##실이
##지면
소프트웨
마주
후임
##ost
##중인
서서
안양
프라이
##모가
대대
##정과
이벤
하우스
##형에
참가한
노동자
이라크
미국으로
BBC
수십
개명
##리티
좋지
##호와
##ite
##ass
원시
##특별자치
마틴
중성
출전하여
고객
에피소드
구멍
제후
##카가
##PS
##중의
SM
자매
지향
경북
사가
##학교를
마법
강요
현존
##브레
##arl
##무네
##안은
비틀
##조참
11월에
크라
고급
행복
##로지
##남도의
Bl
드물
UN
포유
리눅
정부에
북아메리카
원인이
##아는
보편
##어스
##론에
New
하나가
기본적으로
지불
##키퍼
8월에
카메라
스크린
91
화합
##플러
소화
집에
##즈니
축소
출연했다
알리
이상을
권리를
수술
##이면
18세기
146
영국에서
1925년
유적
##비디오
기도
커다란
일으켰다
##치기
돌아온
성공했다
권리
좁은
진격
4월에
특별히
영원
혈액
5월에
##되거나
사람들에게
박근혜
금강
##장애
Ex
사찰
아동
이용할
죽음을
대학교의
##통합
7월에
걸친
##같이
원래는
##관과
##시스템
th
##로에
##ier
##민의
##목에
참여한
쓰러
장르
코스
꼬리
이정
도쿠가와
##티움
보여주는
도메
파울
사회의
1923년
다이묘
보기
상주
##학에
삶을
130
남녀
마감
차단
착용
##대상
메탈
일원
##개로
##위와
선형
일단
접속
플로리다
대선
철거
현급
##중이다
배경으로
4대
##하를
##환을
루마니아
골키퍼
독재
##교는
##본을
##집을
KT
ST
##ET
##마는
##00만
비공
##이게
개척
##목으로
성직
소스
임무를
집필
필립
##가인
##차의
토착
그러므로
그려져
##이상
##계와
##유가
##힌다
1922년
열매
콜롬
하와
후한
##역에
교차
마그
##에서부터
1군
대원
타격
##실로
방송을
이외에도
김해
몬테
실천
##다의
발레
##가능
##파와
171
병원
입법
##사지
##마를
사다
수호
점성
##폴리스
소속의
베네치아
문신
방언
새벽
수직
상태를
용인
지칭
포함된다
제12
파키스탄
##하기를
위치에
##ica
가설
광역
주된
나뉘어
스토리
훌륭
비판을
갈색
##산과
6월에
대다
##종이다
군대
레인
##카의
일본어
이어지는
PS
일상
##현은
##릭스
Sy
광범위
대결
북미
준결승
##슬로
일본은
부르기도
거느
끝으로
운항
후퇴
##군에게
이어서
유전자
게르
연료
##츠는
정식으로
1921년
계곡
##세한
##제르
붙어
오는
이은
##연구소
기하
블록
서기
정확히
체험
혼자
##재로
주장하는
대구광역시
John
멸종
##rom
##애나
En
상하
할아버
초기에는
아티스트
로서
구성하는
재료
청구
##관에서
##각형
분데스
유력
초청
##orm
영화를
반응을
##코는
Cl
구사
##카드
##유를
##인가
소형
##학은
##보로
만들기
대부분을
갖게
패러
수도권
농촌
물려
서명
소득
##olog
구원
말라
##미아
151
서울시
3번
불가리아
성의
혼인
##씨를
##경기에서
규슈
첫째
##하기에
2005
싱가포르
2회
이념
크루
##리브
영양
분데스리가
일련의
##부문
일본인
Man
가면
입은
##sp
힘들
##머리
아마추어
개인의
정통
1929년
대변
백성
산화
수컷
연안
##학회
시모
압축
##브로
##층석탑
AM
Par
진학
##티스
##드리아
##름은
대한제국
구성된다
르네
모노
실수
##다시
레지
산하
##ase
동일본
데이터를
러브
##보기
##집합
##부장
웹사이트
##환경
공기
강을
단행
양산
##니스탄
##족은
##amp
##운동을
콘스탄티노
앨범을
해협
##천의
##프라
그랜드
성과
클라우
또다른
승부
경유
영토를
##구조
대학의
많았다
시작했고
##ction
##슬라비아
영화의
어두
파생
##청은
##파이
적도
##고리
출신이다
클로
##용의
콘서트
본다
##식이다
게임이다
교회의
##까지도
미국인
레닌
오케
전술
허락
인구의
뮤직비디오
카자
##강을
##우라
##작으로
30분
##안전
##판에
##였는데
2위
오이
커버
##한다면
169
1억
pro
##계열
##필드
149
영향으로
감시
구로
뚜렷
삽입
증언
맺고
나타난
홈런을
근육
목숨
오버
음성
집을
##ED
번주
1926년
군사를
수를
##면과
나의
포함되었다
살아남
담고
주제
##당으로
발표되었다
가야
##마뱀
모음
하던
호남
##마에
##ung
##령의
전체를
상호작용
가고
##사람
##심이
##발전
이미지
6개월
당사
약탈
인상
칠레
주식회사
Op
동반
토너
##해에
참가하였다
교사
실업
철저
8개
말해
##하라는
선호
##ound
죽자
2세는
감옥
거리에
고가
주변의
본명은
서일본
##int
조선시대의
국토
##노미야
2004
감독은
웨이
자가
##라면
##식에서
##점과
레벨
맺었다
17세기
발전을
적극적으로
##나르
##레이드
MV
되기도
부탁
작품의
공정
##오고
빅토리아
현대의
강수
예로
지바
이끌어
트라
히어로
미국에
경향이
##자유
##교도
섬식
##청년
##페이지
##타가
부담
후에도
유대인
종로
토마스
##활동
##000
##말로
마드리드
않기
처음에
놓여
폭력
##됨에
구성원
모래
새끼
타입
태종
##란색
##lar
1927년
준우승
1세의
동성애
EP
매장
콜로
가끔
손자
##소수
##투표
전형적인
막기
소요
신고
이종
초상
##크와
##침을
관객
영광
##트롤
##AP
올라가
보이고
삼았다
사이를
마쓰다
사람이다
제13
##스티벌
La
감사
고리
##루살
##DP
리그에서
명으로
##프란
유키
일대
강하게
유용
##안군
1917년
스트라이
codice
그만
##ere
불렀
아리
사건에
에너지를
보냈
주니어
콘텐츠
판타
반대하는
We
무산
유성
##졌으나
1906년
자전거
특허
##았는데
발표된
레이다
잡고
허가
##배를
##드라마
이어져
상태가
주목을
유고슬라비아
5개의
##좌상
안드로이드
과도
영조
##나마
인터페이스
드라마이다
스웨덴의
와서
##토미
##드르
##용을
한반도
뜻이다
보르
이세
적응
코믹
##원숭
사양
##나게
부드
##하에서
코너
##아웃
##국과
##보다도
영혼
이론을
개성
땅을
세력이
예산
재단
##OC
##체인
##48
000명
드래곤
메리
발휘
사이트
무릎
최상
추락
클리
회사의
그럼
섬에
야스
한화
141
남양
레코드
옛날
종이
##행이
라이프
갤럭
##향을
##루살렘
가시
재산
##바키아
제11
모습이
실제로는
등장인물
Or
부상으로
전작
지대
##총리
도시는
일으킨
고안
##루미
##살이
받으며
##소리
##마가
##중이
폐지되었다
망원
고고
넘겨
##권과
##모델
센트
외계
로맨
주어진
##기능
147
1월에
1908년
세워진
거대
관해
##슨이
남아메리카
바르셀로나
생기
휴대
##편의
안토니
##우스는
##갔고
라이벌
IP
티베트
이수
##oy
7개
Ed
극복
운송
World
사형
페이스
##로미터
##니와
하노
비롯해
평론
##레는
##유산
자신은
라이온
그리스도
##우스의
발명
##되던
1900년
##ult
심지어
##즈키
##국인
##밀한
석사
##열을
##보이
##적이며
##프와
한국인
대승
빨간
쇼와
억제
주재
크림
##리코
모임
축제
입사
##령으로
겨우
##라에
하나님
인류
행위를
화폐
##시스트
##의가
##일리
들은
익스
정원
##청의
1호
소집
##절을
데뷔했다
수준의
감각
서북
원하는
##시대에
1907년
몸무
비정
적색
않았지만
레이블
9년
계층
실내
##당하고
다루는
압도
자체가
현상을
차지한다
비잔티움
테크
남겨
일곱
##황후
단선
매니
석방
운동에
되었는데
미분
차지하였다
동영
쇠퇴
민주주의
라틴어
2세의
등도
법무
##치와
아르메
성격을
전두
##았지만
##북도의
##율은
동아시아
밀라노
창간
혁신
##니에
거리를
명시
사촌
탄소
지역이
대회는
빌딩
상의
손에
예루살렘
이지
##디는
상황에
모양으로
건물은
부처
요미
##닉스
1905년
역사가
의견을
##관계를
크로스
AS
곳은
나이에
멜로
주거
##받침
무인
예방
마산
호흡
##사기
##모의
있다가
##하면서도
명칭으로
소규모
스프링
고베
버지니아
학사
##보통
##IT
공개되었다
순수
싱어
##전자
덕분에
라며
부유
없지만
##ool
##건의
바이러스
사로
지었다
추기
황제의
이승만
콜롬비아
시게
##att
실시된
개장
지원하는
수록곡
별로
세계를
설립한
그녀를
아래의
수반
코리아
리그의
250
수밖에
아웃
탐험
맞추
반면에
본토
분산
삭제
중동
크기가
##병원
##비와
##디스
공무원
열었다
##소송법
그들
##물과
남한
이날
타워
##프스
관계는
유니버
다큐
##판의
2번째
135
일어난다
간섭
##기이다
##속의
인터뷰에서
기반을
##케이팅
교수로
브로
출현
꾸준히
고교
왕위
이행
장례
##즈와
아들이다
##ime
아울
조문이다
사람으로
공간을
상무
잠재
##센트
의미가
##학과를
곧바로
소리를
탑승
한신
##대사
##러리
143
곤충
데려
변신
중에서도
총재
##스톤
##MS
마카
수백
##마저
놀라
토벌
1일부터
성과를
기능이
파티
##로써
정도이다
기본적인
가치를
긴급
유입
내는
아무런
급속
도중에
동굴
예외
추대
도서
학자
##지사
##폴리
##이라면
조기
관계에
카페
##법과
날개
소위
달의
##류로
돌아왔다
파트너
모로
##롤라
메트로
맞춰
크기는
인물로
졸업한
라운드
법적
살펴
##inc
173
대해서도
물이
##보병
적어도
##내의
역사는
1912년
보이며
심장
정권을
항구
##지구
세우고
무리
이순
##트랙
##문과
##등이
##나라는
##족을
##테스
영향력을
##대원
차지하는
2020
##민족행위
##구리
##우옌
##당에서
못하게
삼아
##ix
2003
MP
제17
상태에
발렌
봉해졌다
1904년
거둔
대단
예전
이하의
##함은
지역에서는
교향곡
스카이
사이클
아틀
정부를
방송된
신분
##실의
NHK
색깔
중력
##ex
토머스
스타일
##생활을
용어는
주요한
있어야
스틸
인증
중지
촉진
##석으로
##타나
박영
위안
주파
##인인
##터와
##훈련
아나운
역이
##카미
발매한
담은
도구
리투아
전승
주말
테오
##럼비아
2만
마치고
먹는다
살았다
외무
포맷
##플로
##항은
15일에
주변에
##지방법원
죽고
중시
하다가
##기획
지나지
서방
이르기까지
루트비히
들여
방위
##든지
대회이다
곳을
전망
##꼬리
이용하는
몸길
포함된
신사
기호
등장한
이토
타원
##돌프
DJ
독점
병력을
##성도
##치며
##우고
시절에
##카스
사적
사제
동시
##상이다
명성을
2월에
2의
동서
없었고
후의
SF
우라
유아
##보도
타이틀을
연락
필라
##실에서
이어졌다
##리케이션
University
의거
##에게도
int
마스터
셋째
제네
##로동
##양의
번뇌
방법이
김동
##15
##끼리
##위원회가
변화가
경전
윤치
##률이
##오리
##류에
납치
마라
벨라
사과
쓴다
##ric
##조판서
##건설
명단에
책은
##도서
##보면
결승전에서
얻게
##률을
2001
시간에
바람에
El
SN
황태
##자나
뿐이다
통칭
영국과
찬성
블라디
##펙트럼
인텔
##비시
클래식
약간의
오리지
왕립
##영이
중국에서
##하르트
##데이트
국가가
144
만난
복수
유인
##pp
스페셜
##체이다
##란다
##졌는데
모습으로
마음작용
불리며
브라질의
모듈
##단계
##토스
역의
##타와
결심
뒤로
지질
##마루
사격
##EN
1개의
참모
호환
세계적인
##대학원
가요
발효
이글
##양군
##ium
않았던
흐르는
##차에
##번호
문화적
##호쿠
##브를
##비행
##되었다는
그랑
보살
산악
연애
##ton
사용하지
수록되어
전해진다
스톤
심사
##졌던
지방에
음반은
풍부한
거친
반사
유발
##문으로
##토시
기부
대지
부통령
흰색
명칭이
2군
범주
유물
급격
마시
모험
수감
앨런
없었던
##해지고
##역과
##쳤고
바이올
무관
향년
##ey
권한을
걸려
고지
리드
좌익
##전투
##공의
자바
접하고
##게이
간접
트럼
지원한다
다녔
매각
##지기도
상황이
고시
습격
용산
##니스트
##카는
##II
청와
##르바
시드니
30년
서경
옮겼다
우익
크기의
하사
##린이
총선에서
가라
창당
##본은
고통
의미로
설치되었다
베이스볼
##ign
플레
##실한
프리미어리그
##들인
##TC
다음으로
갤럭시
돌파
##이즈
##공학
##az
##오와
지정되어
합동
호수
댄스
하천
개발을
메르
어드
커피
3D
##심의
본선에
유튜
플루
내지
밖으로
지표
올림
월간
##칸센
일본군
1896년
##TA
##졌을
스타크래프트
관하여
랭킹
트윈
홀로
##메르
10만
스펙트럼
##시절
##단에서
되었다고
세계에
1950년대
경계를
메가
비로
비스
재즈
향을
##고에
##m이다
않았으며
##ck
중화인민공화국의
동치
시를
형법
희극
##누리
148
기용
중종
생각을
아직도
애국
때문이었다
부분에
이루어진다
FM
올린
##회로
125
결과로
고립
아베
##년에
발족
시달
지내고
패턴
##리시
##ala
##병으로
지역이다
브라이언
문화의
항공기
모르
순천
집에서
##트르
들어간
이스트
##간을
142
가쓰
못한다
##산성
도시를
##라이터
들었다
먹는
##래의
##old
제공하고
노무현
냈다
##클럽
케이블
알렉산더
도움이
이치
푸른
##노의
엘리자베스
이영
##화학
졸업했다
MVP
스승
해병
아이스
대학에서
##ree
바이러
두드
##오가
##조약
대만
와카
##미디어
##커스
문화를
##자이너
6개의
시마
심한
영주
지연
##모는
오리지널
기온은
브레이
신장
제도의
##청이
##히로
##파크
내륙
서남
##령은
미네
정조
##세기의
중심지
전체적으로
리듬
배급
범위
특성을
1부
되찾
##CC
##토는
##졌지만
##erm
계기가
빨리
포인트
##고한
##도사
##버스터
##앨범
필요로
가득
기동
깊이
붙잡
선두
오염
##긴다
이곳에
마쓰다이라
디아
##ear
2대
아프가
105
유럽에서
아비
입었다
이광
##분야
앨범은
과거에
##프란시스코
책봉
제15
보스니아
말은
무선
##한국
##류와
##항으로
공동으로
값을
나선
##고자
공식적인
이곳에서
##카르
##하였을
##였다고
대학원
나이트
성균
요금
##탄을
획득했다
문재인
or
##정도
데뷔전을
입대
##보의
##자였던
##연한
아니었다
두려워
4차
대로
일요일
##러는
제14
존재를
음악가
방향을
1층
업데이트
##스컵
##도니아
일본이
CPU
12년
가사
사진을
##런스
##론적
##들과의
들이
##사이드
되었으나
김영삼
퍼져
한강
Is
##론과
##진흥
##클린
계획은
참가하여
커뮤니티
가해
히가시
했다고
##라이더
우리나라
고등학교이다
법원
##수도
신칸센
2002
10개
대회를
규모가
크리스토
전의
초래
폭격
합리
##합니다
##슬림
들어와
결승전
효과가
대우
말하며
발라
##화하는
##그래
인간이
종교적
스마트폰
프랜
나라를
##광역시의
여왕
138
ex
겸임
동구
승차
타카
##erv
##ina
2위를
닌텐
다룬
설이
여의
추적
##어에서
사령관
작전을
##유키
물리학
크리스티
샌프란시스코
것이고
막을
성씨
중립
초창
103
아니고
전두환
운반
과학적
모양을
그럼에도
근로
두산
바티
방면
전원
전체의
Chr
장갑
보잉
역전
발생한다
교과
내장
친선
##족과
차트에서
에릭
우수한
##제품
압박
오디션
##사상
##포스
당선되었다
다큐멘
당해
장편
호르
##나고
##으려
136
이외에
중구
##쪽으로는
##주의와
에스파
입문
한양
운동의
국경을
메디
오렌
##사추
##전한
##하겠다고
##그로
##리온
##예프
구조의
구간은
Fran
못했고
이명박
거기
게시
공룡
바오
작품이
북한의
##ork
학교를
김용
서독
##널드
##바야
모델로
눈을
##마쓰
노선이
데리고
등이다
모집
밀접
본선의
수단
##스피
##교가
소속되어
##stem
아울러
힌두
##바시
길이가
있으면
정류
일본에서는
리눅스
구름
극단
점은
##권으로
##Hz
1911년
대신에
##방에
Comp
콩고
오스트레일리아의
관광객
간단한
후기의
##둥이
활동에
인근에
사기
없기
페이지
##하가
획득하였다
낳았다
어릴
원형
자유를
불리기도
DS
간에
잃고
정벌
진단
##우치
##토가
옆에
황후
관심이
닥터
##등록
##곡은
##파에
##편을
##왔고
개최되었다
아프가니스탄
고도
당의
사장
자료를
리이다
입증
찾을
피고
##세츠
미국이
PD
공전
과학자
##현을
##된다는
##이었는데
동기
##령에
##작가
대서양
벌였다
최신
평등
플라스
##습을
베어
빛을
서브
##통일
연계
Ge
저널
##ism
구미
여동생
##pt
##AD
적절한
연설
우리의
전성
준공
결과가
동지
전향
제16
4번
게오
많고
본명
회색
##백과
결과는
고성
무슬림
상영
##세와
##마자
##변을
##ous
네덜란드의
버리고
성벽
이복
호칭
목숨을
드림
무료
응우옌
페스티벌
##어에
##한의
한국에서는
최근에
기록하고
아가
##랑이
##바나
성공적으로
아르메니아
양키
유닛
위치하며
기재
김태
##수산
##스테이션
충격
내용의
미스
##건은
노르웨
And
브래
빌헬
주석
##ML
##사령부
법학
##임은
제19
달아
모드
선제
실용
예능
진술
피에
##실록
##다니
##14
##AL
##복지
Mus
가미
왕자
##편성
이야기가
프로토콜
미시
일렉
일환으로
제휴
##후보
활동이
천황의
친일반
동화
브라우
분야의
막아
##병이
추가되었다
디자이너
때마다
밀양
##노는
##ley
확인할
##란트
SP
벗어
##있고
전자기
우루
##IV
당했다
부장
##업이
서쪽으로는
화려한
시라
오클
##are
가능성을
계획이
곳곳
언어로
특수한
그동안
못해
엔진을
##mm이다
첫번째
##모니
##금융
##바다
구상
기생
빛의
옹호
##OP
##마리
##십자
경험을
조선총독부
공용
구마
급행
반지
치렀다
##식물
활약하였다
반환
에스토
청동
다중
무늬
활동한
돌아오
동쪽으로는
계열의
동맹을
캘리포니아주
지중해
##팀이
##되었기
훈련을
원리
##경기를
선거에
남쪽으로는
애플리케이션
최후
##니까
##수아
##iel
보좌
아케
##악의
별도로
비즈
해제
수천
측은
Intern
막대한
미하
임신
##초의
100m
공략
선진
장면
하야
##체에서
##레오
과학기술
an
김재
시호는
배정
피난
##하라고
##말을
메모
사직
없애
##용은
활약하고
성종
챌린
##IM
아파트
모순
찾는
##계승
##ale
감독이다
가능하며
시대에는
비가
소총
열차는
기갑
당한
바위
열어
##리크
##민이
##민은
##형과
##주의는
##oph
공직
직무
통화
##리야
뒤인
아서
온도
자손
##액을
요구하는
구간이
주한
얼마나
3위
It
네이션
머리를
##ox
연구소
졸업하였다
독자적인
센트럴
##실에
##위원회는
##토를
##eth
일로
항해
##인조
고조
근접
북쪽에
연혁
오디오
쪽으로
처럼
위기에
평생
자리에서
북쪽으로는
현존하는
핵무
##ach
하버드
##우드
##글라
2000년대
유지하고
동남아시아
친일반민족행위
민속
합계
##급의
프랑스는
원래의
1세는
싱어송
배제
재발
##수엘
##밀리
##시켰고
공학
양도
주장이
두번째
##히고
상태이다
4강
sp
떠난
학부
소닉
제약
##리자
102
된다는
아우구
##작을
담당하는
능력이
베타
관련하여
기타리스트
바꾸었다
또다시
이원
지목
펜실
##관찰
##유로
2006년에
훌륭한
마리오
양식
##비나
##스테르
자이언츠
사카
테일러
피렌
##니치
사용해
지역과
유니폼
15년
적대
주문
힘이
##편이
##철도의
1915년
인물이다
면역
주도는
타운
협상
##주인
##세스
##블로
137
마르크스
신라의
##13
##우에
##면서도
##주의에
가지게
다이아
수신
##위대
결혼을
Gre
몰락
컨트롤
##출을
조약을
##사추세츠
리비아
모니
전세계
차이를
##18
##분은
국가에서
대전광역시
전통적으로
성질을
토너먼트
때도
##문관
##타임
경력을
자식
##인들에게
##방이
가능하게
꺾고
야기
왕족
포크
가즈
대외
##속으로
##텔레
심판
부품
연고로
유신
주와
흥행
##yl
3번째
목적은
페루
서울에서
##나라를
2007년에
항일
##발의
남아있다
덴마크의
라트
보인
불만을
##현이
방식의
##orn
##oll
무신
10대
유년
##능력
가질
경고
단종
아들을
128
본격적인
카자흐
조용
##본이
은퇴한
면적
127
결과적으로
머무
무력
중이던
트위
##자였다
이익을
##롤라이나
맞는
2008년에
원작으로
사로잡
MC
리얼
무라
무려
아트
연루
##cc
시스템은
맞게
분광
주립
##장한
##소한
결정했다
리메이
사용자가
프랑스어
전투가
형성된
##해는
##바의
##바이러스
않도록
여덟
적을
착수
##온다
좋아하는
목격
무용
속도를
여수
16세기
100만
For
알제
##해진다
발생했다
후보에
타율
##성에서
서식지
활성화
LC
디젤
실종
##피를
##음에
간다
이인
퍼시
제20
서서히
싱어송라이터
약한
##라미
##테쓰
충분한
그중
파운드
관리하고
내부의
대조
##보가
편지를
##글로
하나를
2005년에
1895년
후반에
리버풀
새누리
자격을
20일에
발전에
김대중
디즈니
말할
세로
말한
백인
부른
오가
해임
현황
##자이자
25일에
그리스어
데이터베이스
군대가
귀환
리스
의지
퇴각
있다면
파리에서
구체적인
복사
예언
전당
죽을
지어진
출력
피부
##산에서
최종적으로
##oci
근거로
거슬러
석조
##주곡
분포한다
미나미
로즈
역과
일원으로
중계
##회와
한국방송
일찍이
드럼
오세
최저
전투에
2004년에
각기
줄기
##포트
##중심
베네수엘
All
##우주연
IT
마찰
사원
수수
풋볼
##내기
문화재자료
말하고
차남
##규칙
##렸던
사실은
1909년
제국이
병력
일명
##률은
개념은
On
때때
무효
부패
시기의
이오
측근
특급
현장
플레이어
방영되었다
실험을
스테이지
제목으로
판타지
주어졌다
진정한
언어를
##이사
##아를
사용이
사용하며
##ance
3개월
끝났다
신흥
안의
야생
이화
착륙
하얀
여론
##내에서
아니며
어렵다
두드러
##여객
##미나
##티는
##ild
레이저
지배를
대답
뿌리
안쪽
##검찰
스파이
시집
홈페이지
후지와
##노프
##브리지
##런트
르네상
고무
수렴
외의
저택
해군의
##억원
사용을
서식한다
AR
아인
한동안
##업에
일본으로
리투아니아
11년
공민
칼리지
지정하여
방식은
김수
세균
토요일
원자력
강점기
결정을
남쪽에
정도가
##션을
Car
##음의
##됐고
정의할
##oth
박쥐
상임
아즈
아폴
##산면
11일에
중앙에
CE
동등
전임
해적
##하러
민주화
김일성
도심
스핀
재무
##신과
##결을
개관
늘어나
성은
영동
착공
##ron
일으켰
비평가
지혜
##60
##석에
사람에게
포함해
게임은
군대는
악화
의장
피에르
다가
매사추세츠
밖의
잭슨
친척
##산맥
방송국
생각했다
직접적인
##색이
제18
2부
개화
뒤에는
삶의
왕비
마케팅
내내
대폭
##함으로
부르며
000명의
맡게
수치
왕위를
줄여서
##증이
시스템의
세워졌다
건의
미치는
사르
시대를
##반의
조선로동
비슷하다
관통
모시
속도로
이리
##경으로
신용
연구는
##ome
명문
##교로
발견되는
무소
별의
인생
쿠르
##색은
##디의
##음은
##반을
후보를
근처의
하와이
빌리
집계
추모
##0m
##후에
프레임
별칭
부흥
사천
요르
##서원
##17
##터로
##투쟁
시작해
자유롭게
때때로
유소년
현상이
##일체
어두운
NBA
목적을
사이에는
지방도
프로그램은
900
로빈
코무네
기술이
게재
이마
싱글이다
생기는
##ai
##교회의
##민당
##림을
##건이
##몬드
군사적
아세
##청을
시작하는
국가를
성공적인
레논
체제를
##홈런
영화로
살던
라이선
남긴
##성한
##편에
시작했으며
지금도
잘못된
하드웨어
세조
이슈
필름
현의
##츠키
남해
따르는
##금이
##팀은
전투는
교섭
마친
싫어
사용하기
관점에서
대주교
링컨
시로
위기
적의
팽창
연구하는
않는다는
모형
어워드
##소스
건너가
##보통학교
밴드의
일관
클린
##석기
##터스
언제나
전진
추증
코트
##아리
아니면
하인리히
비극
이처럼
흔들
##연이
##물질
한국에
거주하는
강이
만화가
미치
있습니다
세대
후일
##iam
역사적으로
중심의
프로그램의
감정
김진
끝이
신비
화면
후안
##시피
##적이었다
형식의
LP
TH
원로
조치
##벌레
##원의원
전선
30일에
이적했다
is
디비전
민사
복구
부천
스쿨
채권
캐스팅
##ress
##팩트
2009년에
수록된
군을
내외
안산
알라
포로
##리타
##겼고
때로는
장의
##열의
##저스
경우를
실패했다
비공식
아리스
요소를
##있으며
##enn
무대에
##층에
그룹의
끊임
안타
주제로
진동
##시타
##스부르크
##MA
##직한
시간은
이르고
그림을
영남
의병
자발
##과도
##았을
##범죄
정확하게
없으나
왕으로
특유의
다음이
하나님의
항공모
군수
받기도
작고
배를
사상을
종전
##바흐
운행하는
##슈타인
강경
곳이
비단
##백을
제2대
Cent
액체
점유
토마
##하니
형태가
돌아갔다
2세가
1집
술탄
취약
침해
투르크
##und
##법인이다
##직에
1913년
규정하고
정교회
##측의
##바는
##ise
과거의
땅에
##야는
##석과
##기관이다
##연구원
##강점
##해주
성공한
26일에
다녀
로부터
손상
풀려
##인들
##전도
##미와
##현악
117
지지하는
5대
풀어
형식을
##져서
승강장은
나가사키
물리적
보여주고
Ab
들을
서해
##스트는
유튜브
리메이크
경부
##수사
##곡이
성립한다
con
군은
루스
면에서
석탄
주소
##였기
운동이
보내는
잠수함
팔레스타
얻기
구체적으로
득점을
식량
평행
##과이
##렸을
영국은
사고로
막부
선을
##ke
##GC
웨일스
13년
곡으로
점이다
조사를
좋다
##받지
관계로
제국은
멤버로
##연속
개발된
빌헬름
cm
관습
동독
사인
사육
현종
##열이
##공동
독일은
하였는데
달린
명종
##하우스
##디에
기체
중순
##마치
CO
Qu
원산
카탈
포인
찾아가
고양이
3만
목조
부착
이반
##뉴스
과의
아벨
애틀
융합
진영
철학자
##고도
##호선의
##티에
##목의
109
기록에
1916년
모델이다
트랜스
kg
다항
바가
바그
유출
##리면서
##조정
108
알려지지
네이버
개업
김상
동래
##che
명예의
문장
의원은
좌표
편리
향한
훼손
음반을
일제강점
기요
박탈
우연히
캄보
흐름
조선인민
1명
꿈을
뜻의
라마
에디
하거나
해운
##미에
##제프
##초에
##라이트
발견한
역임한
못할
법조
정찰
발생하였다
갑작
오타
##르와
일부로
임명되어
날아
말하였다
맡았으며
삼고
영감을
우즈
잃은
한계
##등에
##터에
2000년에
거제
언더
토대로
폐기
##차별
Will
프랑스와
비즈니스
둘은
시즈
영문
##중에서
지형
##자들과
##츠와
##ward
진출에
둘러싼
오렌지
얻는
포괄
진출하였다
속도가
##마사
우승에
폴란드의
분배
침몰
트레
##패로
##생산
리그에
필라델
외곽
##란을
10일에
치료를
오스트리아의
몰려
사료
상수
자율
##선언
##점이다
변수
스콧
용이
이력
함유
##치면서
##au
들어가는
차례로
스튜어
누르고
무거운
제갈
취재
##ru
##제국의
발견했다
학생들이
광주광역시
다루고
카이사
승리로
장난
전한다
##의에
##yn
관중
무죄
섬유
일리노
##천을
##됐으며
##상으로는
##EE
버전은
##ake
써서
채로
##턴은
문법
참고로
##견을
아이를
##주년을
하느님
DC
리가
사자
##스틴
##조와
Bar
ar
기지
남원
두루
미얀
보충
주에서
##니를
인정받아
제조업
소재로
가량
##다리
##위안
119
설립하였다
이론은
따뜻
명성
시그
전염
캠퍼
연구가
이곳은
자치구
급진
물에
미스터
안드레
장로
주축
달러를
나열
마오
배구
복지
전부터
##주일
아이슬
동아일보
특이한
낮아
레전
##학위를
##자리를
##심한
##판으로
가벼
거기에
거리가
김기
조치를
좌파
##현에
##디가
구조는
생각된다
출연한
기업의
노선은
의견이
갈릴
구리
노비
충족
##동에서
공무
군단
##전기
##나를
##용이
아이템
특징은
연방의
##ement
규제
김포
한쪽
선수이자
IBM
창건
##우와
##자원
##격이
##lay
끝나고
기아
길고
임상
회담
##성이다
##병의
라트비아
평소
##가루
##작품
##위원회의
Rob
목사
성모
직선
콘크
##월드
기여했다
스피드
분화
오하이
창시
##두는
##카타
##기준
중국어
교구
에티오
전에는
트루
##인명
##제이
##ata
##own
지냈으며
산타
##ram
##있던
##형태
그러자
프랑스에서
##래스카
106
프로야구
16일에
이듬해인
제주특별자치
트레이드
명백
신하
##고쿠
##하였다는
시즌의
더불어민주당
발원
작센
호세
##우며
##금의
회의에서
김씨
부호
친정
##아프리카
##스러
##보에
##자책
##어이다
##란이
중심이
Christ
교도
응답
의원이
임기
트라이
##곡으로
22일에
col
깨달
내보
진짜
##플라
##금은
감지
동메달을
식으로
입자
##지대
##TS
##이라도
가도
창업
##ii
##한을
##불교
시작된다
경제학
아사히
광산
쇼군
코치로
행적
##돌이
118
제작되었다
고려의
NC
당대
합법
3가지
글리
28일에
되었지만
배틀
##온의
이루었다
조직을
나라에서
움직이는
선교사
##의원
##받는다
중앙위원회
아미노
바이올린
번식
재산을
추상
케네
화제가
##lic
과정은
##기관으로
일컫는
바뀐
외야
일에
집으로
##해방
##누엘
##공이
##푸르트
##진과
독일어
발매했다
섭취
##ius
아이치
정부와
##ude
포켓몬스터
에스파냐
섬을
찾기
평면
황제가
##란의
##케이션
공동체
운행을
몸무게는
넣었다
반박
시계
싶어
어울
팀에
##Pa
차지한
요미우리
이바
일했다
##카를
##금으로
조선인
선언했다
CF
나갔다
닛폰
초록
총선거
나타낼
27일에
출전했다
기념물
4세
Ne
검증
매카
스리
애덤
지점에
충남
털이
##미로
##enc
대통령을
##버스터미널
3학년
관람
수평
쉬운
원자로
캠페
##재의
##네스코
##숙한
21일에
일으키는
다큐멘터리
Ag
에버
조반
##사항
##군에서
##안으로
##그리
오키나와
9시
죽이고
한미
해인
##모로
##음으로
104
남아있는
목록은
Ro
노력을
상원
##명인
##IP
##ition
조건으로
날짜
대처
밝혔
오빠
이진
촉구
텍스트
##수수
##지붕
참가하는
분야에
점성술
아이슬란드
둥근
막내
##팀인
##반응
했다는
작품에
느낀
총괄
##중에는
프로레
스미스
제수
##기기
##간이
##코드
엘리베이
제외하고는
국소
짓고
회사는
건물을
사사
##올로
##ics
모두가
분류된다
CC
게이트
숫자
컬럼비아
##tt
울산광역시
14년
법을
서사
##환의
##이어서
격퇴
보한다
요크
정사
행성의
정부로부터
출시된
##스포츠
리우
바꿔
쇼핑
오라
##보안
##버러
##재가
상징하는
그렇지
바닷
번호
안장
전인
첨가
카스
##서에서
설립했다
라이언
어려움을
분리되어
펜실베이
공채
교외
금메달
소수의
이틀
힘입
##자리에
##작전
않았으나
최상위
오하이오
CON
##의정
##대교
디스플레이
가난한
3회
2010년에
고분
의사를
지명을
##너는
1930년대
일어날
내야
초점을
##메라
##순위
판결을
8일에
강과
고발
며칠
무상
본사는
역설
평범
부동산
중기의
컬러
##군사
##처리
17일에
2003년에
##르지
##으로의
##된다고
2학년
리틀
화살
실시간
오오
##sk
2루
낙선
##캐롤라이나
선수들이
형태는
3일에
남부의
도호쿠
##더는
기록하여
우승하였다
400m
누군
자를
중도
##직에서
영화에
사회에
관리하는
수행하는
관장
보상
얻는다
카롤
##서도
독일에서
국가대표팀의
베트남의
1천
눈이
라스
체계를
캠프
##멘트
##박스
##경과
진행된
테이블
바실
받기
쓰이고
폐위
##하겠다는
##운트
9개
염색
춘천
##itt
소유하고
성균관
경비
매출
시칠
야간
진흥
흥선
##생이
##투를
1500
제1회
공간의
나이지
맞추어
유네스코
장성
종결
##하였다가
14일에
13일에
지방에서
방법이다
Bro
pr
약화
종의
차기
치열
트럭
##가스
##렀고
선거를
복제
초등
##티모
지구와
동물의
미주
일조
##하우
##편으로
##코가
##베트남
##려서
불교의
SU
소니
출토
##열차
전쟁은
십자가
탓에
##레의
##바닥
107
참여하여
발생할
동년
원내
잃어버
##서이다
사용될
아니지만
아래로
지나치게
비슷하게
불을
##타리오
내고
맞지
시켜
야당
지각
춘추
폭풍
##권에서
##마일
12일에
모델은
강수량은
입체
##사고
##르를
##르노
##mer
##네의
##ject
24일에
않았기
자세한
CR
김경
놓은
몸에
송시
들어오
Sou
대회의
할당
드러나
보전
숨겨
신규
여운
영역을
기록된
대한민국은
시절부터
죄를
해밀
##희는
##하였기
새겨져
시나리오
병행
성당
신속
115
112
5천
김현
진나라
팀인
전체가
일리노이
경사
계절
순조
에이스
존슨
허브
##아메리카
12개
123
대한민국에
치러진
거론
쓰인
에우
정면
18일에
도시철도
1894년
정책에
연속으로
가나가와
사우디아
맡았고
피어
##사태
##목이
##생으로
교육과
데뷔를
노래는
만나게
CS
가짜
##때문에
자신에게
된다고
삼국지
Go
바른
별다른
소환
충주
##레를
##평군
대학을
마이너
##urn
아마도
걸어
것인
듯한
아야
전례
진도
앨범의
모델을
3위를
6일에
간부
군에
쌓아
투구
##즈에
있어서는
대상을
마야
통근
평창
다음에
한국전쟁
여기에는
연호
##내셔널
건물이
mm
여행을
작위를
펜실베이니아
나쁜
내린
멈추
실려
엔지
여신
제사
중소
토니
헤드
##온이
III
##전문학교
##원숭이
거리는
길게
전념
편곡
해를
##화하여
##설이
플레이스테이션
도움으로
Ant
Part
플랑
##회담
##가고
##터미널
받았으나
4일에
5일에
등재
말기
북부에
이씨
##스에게
시즌에는
23일에
사우디아라비아
극히
버튼
시기는
##네시
시설이
크리스마스
조선로동당
객관
끝까지
만의
비서
캠퍼스
피트
##실험
개발에
고려대학교
소설을
기름
딸을
로열
##극장
##포구
##일드
##안타
##ble
##칼라
건물의
둘러싸고
필라델피아
No
옷을
주차
##결합
International
개그
대니
뜨거운
주제가
성공회
결혼했다
급격히
끌려
최후의
하마
##아키
아버지와
보여주었다
2일에
미카
속으로
영어로
##차원
##바스
##ett
바이오
여기에서
기반의
페르난
##ology
이준
##외선
##저지
시작되어
일어났
29일에
시내버스
슬로베
노태
사헌
서쪽에
##주식
1세가
조금씩
Rec
대웅
소실
칭호를
휴스턴
##해양
##민을
구조로
이미지를
제외하면
오리콘
덧붙여
Bla
공인
##21
페르디
나아
대법원
이윤
허리케
##쟁이
##주쿠
##받을
멕시코의
친일인명
RNA
SD
만났다
쓰였다
사이타마
활동은
입단했다
나눌
두어
먹고
은메달을
이상으로
영향력
##ames
사무실은
FA컵
권위
꼭짓
매개
증기
통행
페어
##왔으며
있었다는
2002년에
일시적으로
보니
양주
이노
증권
평택
##공산당
일도
##질로
##경영
##놓은
전쟁으로
인물을
몬스터
미토
##당하였다
시작하였고
바꾸어
모방
장학
##레아
개혁을
제주도
카를로
나이가
위임
주를
지폐
##식품
##체제
##ash
기간에
##사우루스
수학자
탈환
현저
##디나
사이버
과정에
만남
색을
선구
시초
##해지는
계획에
##하려면
광범위한
Sup
곡의
동명의
마약
상세
##주기
##해와
200m
생각해
소속이다
달러의
일어나자
마케도니아
##려면
113
어려움
정신적
미노
시키
코어
##류이다
학교에서
마천
신생
어휘
##회장
##가에서
##함수
##망이
미국에서는
다니엘
활발한
##게이머
7개의
부수
스톡
신한
##포는
##턴의
연결된
건물로
강제로
산소
시흥
##버리
##진에
##유는
문화체육
기능은
은퇴를
아일랜드의
부정적인
자본주의
공사가
박물
성분
전제
지점
##EL
그리스도의
사랑의
니가타
보완
업그
유격
육성
지어졌다
전투기
승리한
3차원
힘입어
5만
마츠
실질적인
그날
##포가
##지나
##장치
##오를
되었을
강도
공사를
라우
베토
원수
테레
조건이
프랭크
물고
헤라
10여
작곡한
교수가
북위
쓰기
##동이다
생각하고
성공하였다
태양을
교수는
리치
무승
수성
##화하고
##길을
##les
개발되었다
문화방송
최근의
위협을
5세
부를
부사
연세
파이어
준우승을
건담
골프
단위로
협박
##로니
자신과
관념
돌연
향후
##론에서
##불교의
##약품
그래프
깨닫
낱말
동쪽에
마루
약물
##르며
##중국
사이드
에스토니아
레전드
Pa
부과
에미
연금
##lass
##ans
확인되었다
1에
규격
수업
조상
에서도
왜냐
쫓겨
측면에서
##per
중국과
지속적인
계몽
다리를
봉사
존중
충격을
##실과
##시까지
##피는
목표를
삼각형
프랑크푸르트
##소득
일본을
움직임
중요하다
알바니아
BS
곡이다
윤리
폭스
황해도
##양은
##도리
##연은
##벤처
사이가
132
거행
부부
스티브
이내
처녀
트래
##러가
프로게이머
##anc
구릉
미사
아예
##전선
##란히
조직의
##ott
소설가
백악
아는
안성
음식을
재활
정렬
조항
일컬
초신
학위
##타니
2012년에
부족한
Gu
낭만
시점에서
##시노
##티의
편입되었다
알코
임용
전도
협주곡
##과로
생각하는
비례대표
베토벤
맥스
생겼다
소관의
장려
##자도
출전하였다
이라며
스트리트
되돌아
상반
##선이다
##정부의
##결정
##렸으나
시즌이
마이크
7일에
기습
달이
얻고
한스
##단위
126
하나이며
결과에
##지역의
Har
북구
회고
정치가
통일신
경험이
후쿠시마
So
식별
회사를
##자스
##층이
##님이
##hel
주장하고
월드컵에서
##그라드
EC
내전
넣고
받침
북방
##내어
##희의
활약한
천연기념
난이
질량은
협의
##이었기
대통령에
대신하여
담당하고
상용
아부
카리브
##권도
##이었다고
승인을
좌절
##곡의
##짜리
121
133
##ict
국방부
GP
Gen
빠진
중간에
One
안티
온천
##ual
곡이
부적
서정
우주의
응원
인문
일행
있으면서
재혼
전압
차가
치명
##스트의
우울
이긴
자오
함으로써
##시민
##교수
##초를
활동하는
##isc
대학에
2011년에
360
인접한
공로로
그냥
루이지
추출
##인치
##톨레
오를
테니스
##톤의
선수를
##lect
교육의
이벤트
##검찰청
배웠다
아크
아랫
알렸다
열고
장군의
##속을
##미사일
##24
##rans
난징
붙은
통틀
##바이트
전라도
##TV에서
남부에
높고
진정
추격
합작
##플렉
##거리는
마하
이의
저명한
토르
하더라도
##이면서
##공주
국가에
000여
서식하는
밤에
법인
장치를
##공은
##목적
##람쥐
사범
상상
최적
##아일랜드
##구르
##역학
출전해
1호선
나섰다
밀어
이경
조명
철도의
후궁
##스런
##네는
일본과
마을의
중의원
구제
북부의
패키
##놓고
존재하며
##ream
상태였다
포르투갈의
공화당
자리잡고
우라늄
GS
것에서
동국
박헌
시장에
##터널
##어지는
참가하고
간단히
마쳤다
선물
컴파
##나우
음악의
Amer
가수로
서머
속하며
시뮬
위기를
환원
##이거나
##시에는
##카라
##달아
##태평양
조별리그
굉장
문명
수동
슬라
앉아
유산
증손
천도
태평
##해왔다
##훈장
들어온
결정적인
요구했다
마을을
가톨릭교회
이래로
Ass
나눠
놓았다
온타리오
유교
카타
부분적으로
Dav
불어
선사
의회의
제곱
통영
해주
##참모
경기에서는
##위원장
지방을
형사소송법
광장
로도
몰래
물건
밑에서
브로드
##재단
19일에
선수이며
##ald
변경하였다
1시간
담긴
로그
성주
양식을
자체는
준비를
펼쳤다
##자이며
124
진출을
실린
모으
순수한
시트
투옥
##일과
##진으로
구조가
시절에는
애틀랜
2집
억압
옥스
중에서는
##사랑
프랑수아
##과학기술
##ife
말씀
부대는
의뢰
점프
##무역
설치류의
학교에
수면
##원들은
##되지는
##음과
승격되었다
##테르부르크
대피
뻗어
삼층석탑
##uro
##TP
의미의
인물이
도미니
사토
스케이팅
할머니
##도어
##치료
##번뇌
134
여름에
##문제연구
대책
두개
시점
왕은
효고
기술의
인정하지
3으로
기점으로
안보
페리
협약
##나미
##방울
사회를
카자흐스탄
프로레슬링
##면에는
##코쿠
##커니즘
##작은
조선일보
지구에서
승강장이
지휘관
도로이다
북쪽의
관현악
디렉
발트
비평
스릴
신호를
역에
유가
윤보
의회는
지식을
##목은
##책임
아름다
공의
대교
시호를
이소
해변
##풍을
##산리
생각할
진출했다
추정되는
실패로
제트
지능
##열대
##ode
거느리고
군대의
그다
업적을
##각의
1999
도시가
시스템이
찾아볼
##베르토
School
조달
학자들은
##A의
##쪽의
##idae
드라이브
모친
밑에
신탁
요소가
할리우
##채널
##란은
##림이
122
사람과
##시키며
일컫는다
8개의
기리기
물고기
보지
일체
지고
지주
##자본
##OL
##각이
CN
##유적
특징이
사라졌다
순회
##도마뱀
##야가
##공립
##총장
앨범이다
##프로그램
왜냐하면
16년
고수
내부에
모르는
볼리
시외
암흑
오바
사건이다
중추원
KIA
넣은
논문을
백색
하트
합창
##로우
##라기
##미쓰
##마와
##예를
창원시
문화체육관광
ES
고백
노리
명에
바퀴
분당
정밀
조리
중기
청원
그러던
기록하는
도착한
비타
##무스
##왕조
##재는
##파이어
##86
##갔으며
이루어지고
거주하고
바티칸
Je
겪었다
신념
위탁
##시부터
자신도
이론의
2001년에
제품을
Su
마스
몬트리
무기를
상트
상처
왕위에
위장
주위
##나스
114
위험한
퍼시픽
2명
9일에
결론
날에
섬으로
존스
##산동
##릴라
문제의
지정된
오프닝
스탈린
산다
이차
##달라고
밀접한
구스타
노트
주장한
초반에
선보였다
쫓아
최대한
##도비
##국어
##대왕
##올림픽
##AF
##ank
##red
생각한다
##ade
비난을
한나라당
돌고
수습
정한
팀으로
팔라
##OU
##LE
##ink
어머니의
시설을
복귀하였다
이집트의
##여자고등학교
뒤집
레슬링
요약
되었다가
##학자인
민족주의
선거구이다
블라디미르
숭배
신이
영상을
제사를
주체
최하
##A는
##통의
게르만
금성
밴드는
부문에
지위
진급
##루션
##말라
##그레
##철의
3칸
블로그
올바
초월
##포의
##러의
##봉을
국가는
4번째
경과
남구
느껴
담겨
상법
칭찬
하락
호평을
불리게
스파르타
강희
공익
쓰촨
의석
##서야
이후부터
##km의
궁극
이케
카트
카스티
평일
##인들과
##주어
이후로는
##위원으로
마음이
AK
거울
그쳤다
내리
부딪
자택
제프
제독
채무
태도를
파스
##ark
##omys
당일
보일
탐지
회사가
##사령관
CJ
구할
누가
차원에서
척추
##서비스
##화에서
독립된
유래한
IM
디오
베니
서초
충북
##준은
##층을
111
운동은
언어의
밴드이다
sh
게이지
귀중한
바나
부대를
자체를
자금을
효소
##아파
##상규
##ail
##매치
생산하는
자연스럽게
그룹이다
블랙홀
신설되었다
종로구
1위에
것보다
구동
메타
미루
실전
유죄
중독
##마르크
이름에서
국가로
브라우저
레바
스폰
신임
알루미
이천
##정당
독일이
4위
떠올
비유
석가
어긋
예배
##림의
##증으로
비판했다
평균자책
고구려의
결코
권고
롤링
브뤼
속도는
이남
잃었다
총대
커널
##다르
프로리그
있었을
개발이
프로그램이
물질을
체포되어
굉장히
Her
광둥
도는
석탑
코스타
##원들이
##태후
##량으로
##레이터
이에야
간호
민영
믿고
세자
의식을
케임
호위
한국시리즈
네팔
일러
했을
환상
##리라
##분석
##23
##협의회
##먼은
실패하였다
슬로바키아
Sm
김창
딸로
만일
존경
측의
협정
##애를
##질은
##헤이
진행된다
##선수권
1선의
나눈
데스
유언
최연
##ute
동명
미즈
업체
##박한
표현을
런던에서
말의
생략
제노
##손은
이름인
등장했다
3루
빛이
원인은
웹툰
장관을
##척의
##바이잔
크리스토퍼
캄보디아
방패
줄어
진군
##EM
가오
아기
연쇄
자회사
희귀
##푸스
과거에는
남쪽의
성취
##지휘
##박사
##액의
않았다고
최고인민
성격이
엔터테인먼
안에는
초과
##니시
##파르
도주
만세
아제르
이식
##청에
##학교에
아버지를
##ower
배치되어
근처에서
##시즌을
개교
그랜
바꾼
오고
와중에
장거리
힘든
##대회에서
##글리
다음해
경찰은
일종으로
긍정적인
갈아
담배
쏟아
앙리
원나라
해수
##ee
사망하고
방식이다
트리플
1분
IN
단기
비주
사슬
시장을
##나갔다
##널티
##법칙
##역사
지나면서
종류가
각본을
##체고
##타케
##땃쥐
규모로
대거
용의
정무
##공무원
##슨과
기록해
않는다고
직접적으로
가까워
거기서
고체
대가
모서
상장
이룬
회계
##ole
##정리
##있었다
중국에
지적했다
왕세
##효소
##스트리
000만
알려져있다
민족의
승부차
에티오피아
놀이
밀집
시는
어른
일이다
##환이
가지며
##사업을
도미
매입
인산
최악의
표명
##gh
배우로
선거는
것인데
뉴저지
##변이
참여하는
확실히
3층
Gl
with
선이
성폭
이가
제압
증후
짙은
##학적으로
129
독립운동가
냉각
제도가
주행
##학원
##겼으며
##oup
##lex
민족문제연구
광무
드문
쇼트
유동
##잡이
##형이다
1920년대
수상한
비로소
Fl
소지
태극
하우
##개국
##악한
##ater
##라이어
후보는
##ose
물러났다
ISO
닌텐도
두는
에밀
종으로
##사리
기업이다
나가노
구간을
HT
더글
마일
발을
불확
칼라
##OW
##GM
en
단단
붙인
소매
신시
하이드
##값을
##GB
지휘하는
제안을
3의
공모
무지
수술을
야쿠
존속
##하임
##오르
##커는
##액은
##작의
##욕을
경우에도
이유를
1898년
몬트리올
알루미늄
문예
잎은
총칭
##함의
상류
씨는
아담
여성이
축하
화석
##검사
##황제
움직임을
인근의
비용을
경로
로저
엄격한
지옥
##임에도
##ola
##대책
##크에
수도원
계속되었다
요구를
EU
Res
주도로
##부르
##공파
1901년
스릴러
아제르바이잔
상표
신부
용어를
##즈카
##차량
##자연
##렸는데
세계대
뛰어나
디자인을
AN
고쳐
문서는
홈구
헌법재판
선언하였다
버전의
1학년
디자
박스
축출
##단이다
##테면
지방자치
소속된
##able
모나
이산화
하시
##버린
터키의
Per
다룬다
세상에
소금
자문
함수의
##감과
나머지는
최고인민회의
3명의
EX
별명을
헤비
##수용
##모와
부분의
아래에서
가리키
기자회
별은
쓰지
적고
##m2
##함마
##덕션
##먼드
결혼하였다
전통을
환경을
1999년에
##선거구
투표를
코로나19
설도
악기
키프로
항소
호조
##스기
##까지만
다양하다
음반의
대학교에
활약했다
외교관
완벽한
강연
고창
등지에서
많으며
설탕
아라비아
주오
직결
##번을
독일과
이를테면
발매하였다
학교의
스스로를
National
기저
리만
본부
불편
안나
어원
일방
하동
것으로서
의미에서
정도였다
저작권
거북
내무
반해
직전에
카나
해소
##수인
역사와
노동조합
다운로드
로이
아홉
##전사
##지아
##채를
20대
나오지
어머니가
나가는
동위
불이
센다이
중산
대회에서는
수도인
전체에
1899년
1884년
이어진
정해진
책의
##버렸다
존재했던
타이틀곡
2천
감리
강서
관리를
데뷔하였고
방식이
싱글로
획득한
프란츠
연꽃
청주시
##지는데
##0명
##디언
아시안컵
따온
보다는
손가락
정해
줄무늬
청춘
##정원
##홀름
##que
20여
##out
나폴리
부유한
김병
##포드
##방에서
##LS
국내외
플라스틱
래퍼
미소
여우
##투자
##약성
하나였다
대표적
존재하고
배신
산림
성서
시기를
재현
프톨레
##구성
##매매
##통이
도입되었다
규모는
임시정부
핀란드의
로맨스
시칠리아
만나는
미시간
부가
빌려
시바
하라
구분된다
Ind
가축
김옥
몸이
삿포로
여부를
주가
판사
##로이
##제한
##irl
어려워
구출
궁정
섬에서
시공
유벤
##일으
##적이지
##타스
선수들을
우승한
어항이다
부서
시골
아타
##ype
##25
##황을
##블리
자동으로
런던의
체코슬로
AD
BM
시베리아
히타
##년의
관련한
부분으로
니콜라
구마모토
나이지리아
연세대학교
알코올
1기
BC
JT
듀얼
아브
옹립
조화
##루와
##ax
##fer
1902년
것들이
곳의
교리
서적
양호
##에너
##도바
##측에
예술가
아무도
쿠데타
매니저
페르디난
Cor
않으나
여우주연
종은
한명
##너의
미국을
정부에서
사고가
히데요
To
즉각
##ha
##위해
월드컵에
주민들이
유로파
경계로
검은색
Art
System
견해
딸인
리스트
맥도
본인의
##로프
##차와
##야만
##히메
Mon
경신
고기
공손
세상
오비
이어진다
제퍼
##문자
##구나
##EG
##평화
##eng
고령
말기의
벌어졌다
중대
케플러
피츠
필사
##감에
##쿠니
아니라고
형태이다
정신을
띤다
세례
신정
판례
##트니
##열에
##IG
모델이
파이널
분명히
적합한
할아버지
LA
대행
모용
이병
중복
폭넓
##야를
##제학
##푸르
##익을
##작이
결정되었다
물질의
불러일으
Pe
나올
띠고
보호를
봉건
제자
카디
##우지
##국장
##브의
##생명
존재가
대통령으로
대학생
친일인명사전
기단
오지
장면을
적혀
지름
케빈
파나
플랜
회의를
##스카르
상트페
섬이다
신선
우편
응시
##way
일본국
광해군
네오
노란색
소말
해남
##어요
##ene
이유가
달성했다
클래스
노르웨이의
르네상스
부재
유저
황제로
##감한
##판과
주장은
기술은
출전한
CH
Kor
성운
시범
연령
장군이
컨셉
##메다
##ve
##FM
아시카가
우즈베
GN
감행
교역
대합
뮤지션
시와
이끈
핸드
##라톱
##방으로
환경에
갈등을
끊임없이
되지만
무궁
선정한
입원
채워
퀘벡
##OV
##츠가
##금지
##거진
이루며
레바논
손꼽
##차이나
##US
##캐슬
##ini
시설관리
중단되었다
THE
사모
이방
##셰비
##ery
방송되었다
참여하고
자유로운
느낌을
PR
교차로
버려
송나라
스노
왕복
으로서
주류
##국사
##뱅크
기록했고
국제적인
31일에
플래시
제네바
평범한
통틀어
날카
때인
일하는
차이는
한인
##허가
##냐는
마음에
주민들은
5위
Ac
글래
단축
부설
##수리
##파인
차량은
천문학
상트페테르부르크
Day
공신
기사를
산란
승무원
태백
##기니
##슬리
##연수
##브는
가지가
올림픽의
##운동의
제국을
구의
그릇
문서를
브란
조르
조조
킬로미터
향하는
한국은
Colle
마블
복소
워터
황해
##미즈
지역구
2014년에
적극적인
가벼운
국기
이관
잡은
##지능
##3명
##대군
##거리를
##택을
##결과
서울의
떨어지는
물의
이데
역사적인
위원장
2명의
사면
소셜
심리학
용도로
총리가
컴퍼
표본
##레타
##준비
##돌을
##폭탄
개념이
2주
가죽
고래
루터
보드
순교
원더
종속
##OD
##산물
##과정을
##중은
##form
진행되고
이야기는
섬은
시장에서
용어로
##소타
리그를
기독교의
가고시마
Pet
종족
##루아
##암으로
##영화제
다케다
술을
철도가
체류
타격을
표지
프레스
회장을
##어리
##PG
##운동에
비판이
##고등학교를
패배를
와이번
청와대
도카이
등극
따른다
매달
비자
서유럽
##군단
들어간다
처음부터
공격에
회사이다
보유한
인디애나
CM
먹이를
미들
벌인
입각
자선
##코르
위치는
결정된다
왕국을
sc
간토
국장
메소
불꽃
성사
손해
연기를
전속
포드
협상을
##준의
##쳤으며
중앙아시아
밖에도
안테
오피스
죽어
출산
플러
하차
##프라이
##푸아
116
결성된
메시지를
국어
유진
조언
패한
하남
##보르
##빌딩
역사의
고민
국보
그들에게
다크
대두
변동
서원
양국
이북
##강이
##테스트
##IR
##유행
2013년에
FC로
친일파
북아프리카
##국제공항
2가
관직을
국군
리오
침투
1995
##로부터의
재능을
아리스토
버렸다
아열대
학원
해의
##0km
##버는
경기의
요청을
드물게
콘스탄티노폴리스
Sw
군이
권총
입성
호의
##급을
##시즘
##스와의
##환은
##웠고
한성부
아틀레
누르
바빌
산출
세미
심의
##사나
##하자는
15세기
음악에
인터내셔널
결혼하여
이때부터
기간을
##oss
차량을
더욱이
어려서
갈수록
공부를
말기에
엄격
지수
파동
##주지
설치한
##하자면
야마토
올랐고
아폴로
느꼈
대도시
##측은
##협력
1996년에
성능을
3부
대부
라그
샘플
포병
##다드
##프에
##더니
기초를
3천
감정을
무료로
미디
발칸
있기도
##프레스
##철은
시리즈에서
스코틀랜드의
각자
당연히
라오
맞붙
센고쿠
올리고
인플
장안
시절의
경찰에
비밀리에
미술관
중화민국의
물러나
지냈고
난다
말하면
무대를
봉안
빈곤
애칭
우호
##통제
발견하였다
2차전
헤르체고
년에
문자를
신축
일대에
헬륨
##리조
##강에
정치인으로
감독과
FC의
극장판
군대에
러셀
봉쇄
엔딩
하원
##아들
##OT
##풍의
##나가는
##ler
##절한
##날레
##붙이
연결된다
시리즈를
가마쿠라
슬로베니아
경희
단어는
룩셈
유라
##쥐과에
##간은
##방은
부문에서
통일신라
그다지
SH
대치
던져
숙청
스캔
신중
##인한
##열은
##씨와
1897년
동학
물어
##사유
##즈로
##기사
##발이
##ony
자유주의
내용으로
인정하고
가계
견제
시립
오아
잡았다
##해튼
##자들에
##히토
##번에
기관총
유래된
프톨레마이
고유의
교양
기어
대관
목을
잡혀
중일
##학부
##녀를
존재할
모양이
파일을
비율은
초창기
것임을
불리고
지나는
피신
##가요
##70
##창을
알려지게
국제적
진행하고
##가지의
와의
케냐
##기게
##현과
##0년경
사고를
As
둥글
시위를
##량과
##시키지
독립적인
1903년
공간이
만족시키는
추측된다
1라운드
2배
War
전년
제니
##32
##타우
##킨스
설명한다
관할하는
까닭
얻지
이규
함부르크
##종과
##브스
##회의에서
개발하고
값이
기각
농림
오노
질량이
크기를
페널티
협동
##해온
##왕에
##히코
##품이
##항의
사람도
사망하자
이론에
급제하여
Don
남기고
동문
뒷받침
세션
완화
편지
##즈에서
위치하는
이용한다
조지프
스트리
프로젝트를
반도체
균형
나중에는
본거
사생활
정말
대한민국과
과일
별자리
부지
유학을
진공
콜린
크리스티안
각국의
면이다
생방송
퇴임
호프
경상도
제3차
유지하는
형성한다
먹을
부작용
인테르
피하기
##해주는
##소방
##ye
조선에
아래는
이루어지는
차례의
##ever
위키백과
Wind
본사를
불명
세력의
직장
##전차
##화물
##진군
1998년에
버전이
동영상
문화체육관광부
NAS
괴롭
넘어가
민병
성별
스태
애비
우드
원조
음모
키스
대회가
고등학교를
야마가타
Inst
룩셈부르크
1루
2인
ID
감마
광저우
그루
두께
산둥
승자
##에다
표현하는
기업인
기존에
변화에
아키텍
트로이
제주특별자치도
Med
기숙
김홍
싸워
토끼
##rat
##네마
##렸다고
상태의
뉴욕의
확실한
그랑프리
시설관리자는
레이스
차원
##연방
##량에
축구인
##ution
피해가
관할했다
간선
김제
연수
육군의
일생
지평
차이로
피의
##라트
##90
사회에서
여객철도의
즉위한
정리한
병으로
삼촌
안치
약력
일화
지키는
캔자스
##hem
100여
안토니오
un
김정은
메릴
미라
입장에서
잘라
콜라
푸에르
행사를
기록하면서
들어갈
##스카야
DM
사쿠라
쓰시마
어둠
여진
예이다
재미
전세
즐겨
##화점
##방위
##ican
운행한다
목표는
##정책을
개원
대안
라파
메커니즘
발언을
상행
왜곡
##할때
##봉사
스위스의
자격으로
기기
때에도
무성
미터
사살
없었기
초연
표면에
필드
혐의
##7명
차량이
방문한
8시
가구
선배
오쿠
작아
죽였다
클라이
탐색
##군이다
##토르
프랑스에
연합군
밝히고
미네소타
급성
슈팅
일대를
전력을
정권의
터뜨
##부상
##스파
##어지고
고려시대
계획이다
설명하는
설명했다
표방
##감으로
설립되었으며
##경찰서
엔지니어
교전
문과에
세속
안으로
양이
캐서
##리사
##교에
##였을
##쿠버
##erg
정의한다
특징으로
그려진
클라우드
무함마
밝힌
백제의
##츠를
##ins
일반화
##ings
차지하며
1997년에
작용을
취임하였다
평론가
Mc
기슭
낸다
등용
막시
보라
위헌
크라이
화순
##ral
##거를
있는지
선수는
##rop
##교육을
la
곡선
극대
이산
자국
저기압
종착
태그
##아과
##피의
##문화유산
##으로부터의
점령한
시청률
아이디얼
Can
le
동행
아닐
이태
자의
주어진다
창의
축적
펠리
편에
##링을
나타낸
의미는
프로그램에
##chn
3명
Rock
간신
반공
이닝
태자
##미트
출신인
사랑하는
환경에서
담당했다
유사하다
CEO
사간
암시
옵션
왕을
적지
취하고
품고
##브리아
같은해
정치를
도입하였다
그레이트
어드벤처
3분의
at
결선
신조
신학교
직면
##내며
##테이션
##각은
##우스가
프로듀싱
미시시피
꽃은
달한다
업적
중재
팀에서
흔한
##양함
##위성
##노가
결정하였다
스타리그
승계
연상
오로
지녔
추산
판정
##let
김규
나를
불상
비치
일제의
토요
한층
##5명
##슬레
대통령과
정보가
평안북도
암호화
주어졌다고
국영
노선의
단어를
선도
##보건
##당해
##거는
##층은
평안남도
미얀마
글자
보게
소행성
요동
프렌
##트륨
##루시아
##께서
결정하는
역임하고
방정식
Mag
기법
닫힌
맞은
무슨
싶은
언어는
인데
##언어
##6명
##골로
##희가
얼굴을
실질적으로
벼슬을
감안
무조건
진해
형상
회로
##oon
##수지
##우기
##크에서
##히트
##링은
문화가
타이베이
비행기
더불어민주
그렇지만
도요토미
총대주교
굵은
맨해튼
상인
상응
유식
주사
하부
##주머니
##으려고
##세르
##커의
##왔던
들어올
드러머
프란체
me
가환
깨끗
다비
모은
스즈키
얼음
음료
전했다
치안
퇴역
##yc
##변에
전체적인
차량의
스테이
새겨진
뚜렷한
William
기회가
서포
재편
##신경
##받게
대표적으로
건축물
필리프
강점기의
가면라이더
2는
거뒀
금요일
발현
인상을
튀니
##트루
##병에
##품의
그러다가
시리즈는
뉴욕에서
기초로
바르샤
기상청
Sk
글루
사관
서민
##영과
##왕과
게임이
엔진은
헝가리의
죽음의
케임브리지
나주
데카
데스크
명사
총장
취항
##가르
##공격
서울대
평가했다
중요성을
아르헨티나의
##사무소
드라이버
담아
에디션
원천
이장
입헌
코드를
특집
##반이
##빈은
대전이
2015년에
##전이다
##uk
##키와
##두를
##코타
DD
견해를
광명
미친
정도를
조정에
##병은
역사에
되어있다
무실
수장
화강
##22
시간대
바이킹
오케스트라
ro
높게
볼로
소나
없어서
영등
장미
환자
횡단
##가수
##4명
음악적
부분에서
아버지인
받았지만
가려
김구
세금
손으로
워너
주머니
##순환
##8명
##컨대
사이토
제21
그래미
위원회의
고통을
궤도를
대가로
뒤에도
마인
주자
학문을
##고와
##발사
##위원회를
조약에
갱신
산의
예수의
코코
##아와
##족에
##내지
##계약을
##여자중학교
베네수엘라
시뮬레이션
ph
미션
미륵
실망
평정
과정이
마라톤
극동
다니는
사정
수확
온갖
##전시
##작이다
##책으로
기록으로
이곳을
중반에
더해
성장을
크레이
기준을
보고서
최소한
니콜라이
2억
군산
만성
아레나
없었
의결
제치고
피겨
##에미
##메가
##위기
##IL
##inal
주장하며
설치하고
산업의
프레데
회원국
비율이
붙여진
2기
대명
천재
투르
##누스는
##체계
컴퓨팅
전반에
사단법인이다
고인
델라
돌격
별이
소리가
전하는
헬리
##SS
이용객
부근에
세이부
말미
문인
소모
중장
##는지는
##우트
##me
##나리
##신학
##것을
##예정
평가된다
제3대
출시한
왕국은
예선에서
동생인
개종
마다가
압력을
오류
절차
짐작
##두로
##여성
계약이
가족은
카를로스
다이아몬드
CBS
be
기증
낳은
뉴캐슬
베른
살았던
제의
조광
진지
투수가
##길이
##나서
4월부터
건축가
##ific
발렌시아
오클랜드
4만
강동
공과
구단의
산시
생생
알지
테르
##엔터테인
1996
##ino
에서의
시간의
콜로라도
낙동
뒤이어
본인이
분출
실력
싸이
크롬
플라이
##단지
##본으로
정치에
형성하고
실패한
구역은
##ows
국무총리
Wal
qu
선과
정권이
중서
##들여
시즌에서
새로이
6시
계수
딸이다
발각
비오
사당
사거리
스칸
이완
죽이
합스부르크
##나오
##았다고
공격하여
머물렀다
걱정
꼭대
난카이
똑같은
물체의
웨스턴
환영
회수
##선생
##풍이
정치적인
##uck
Fe
브랜
상해
씨의
카드를
통용
##아스
##장사
##믹스
##2명
##번은
##들에게는
1871년
민간인
선생의
둘러싸여
앞면
역까지
우르
이현
쾌속
##페란
##노리
제작을
마을에
아름답
##기록을
글꼴
사바
없던
있거나
혁명의
히라
##간지
##브르
자신들이
영화가
연구의
중심기압
대학교를
진출한
클럽이다
개념이다
선발로
레온
오크
저하
청산
파란색
포로로
현재도
이탈리아에서
적용되었다
내려가
팔레스타인
궁궐
배가
부의
세비
있음
호응
열린다
이루어지지
일으킬
동일하다
국립공원
언급한
미래의
전역에
검출
돌을
루시
뽑아
압둘
유러
##리아는
이상한
1885년
##eph
가네
넓게
온도가
이빨
해명
##인권
##거리가
##빈의
선수들
##ara
옥스퍼드
SE
김민
더이상
데모
실버
열심
위그
체크
##올라
프랑스가
##들과는
가져왔다
그레고리
콘크리트
각지에서
맺은
범위를
피핀
##이후
##서기
##두에
##소이다
승강장을
이스라엘의
북아일랜드
Mac
광학
서재
수양
쌍둥이
용암
조립
직할
##lo
##티아의
11개
프로덕션
##위원을
생산을
학생들의
오사카부
아라곤
가자
나라는
봉기
쌓은
진을
##추는
##교와
##팀의
##시켰으며
보여준
떨어졌다
##ike
Robert
용병
유연
인격
잔류
장비를
저렴
충실
현행
##한테
##발로
도시에
중심지는
시대부터
2016년에
경찰의
1990년에
주목할
불가능한
소송을
5번째
끝날
사카이
수색
시직
##공무
제목의
목소리를
후임으로
다테
목성
진실
카우
파리의
##마로
##증의
문화와
2호
4명의
et
발급
원인을
증상
폭로
풍자
##무로
##감은
사랑에
통합하여
증거가
개가
격렬한
마스크
보성
분비
성명
수에
어업
##라리
시작하였으며
##레이크
시스템에
형성되어
학생들은
올라간다
1995년에
수비수
모로코
새누리당
각색
생식
성숙
하행
##메드
##문에서
##네티
##반에
건설되었다
예정이었으나
일렉트로
1대
단절
때가
아돌프
월요일
위와
유권
키워
##기자
##미스
##UC
##혹한
현재에
##ella
스페이스
제국에
Comm
가볍
걸린
관악
기수
본관
붙었다
신화의
정립
충렬
타구
##MP
1998
##eral
##row
불가능하다
##도르프
부르고뉴
비주얼
강에
마가
밀리
수축
주위를
추첨
##팀을
러시아는
1994년에
2선
2칸
내정
배후
슈트
입을
##천사
##1동
##락이
10분
가지의
공격수
설명할
오카야마
5m
NT
kt
vs
번에
병역
흔적이
##ons
선수로서
관련해
복귀했다
공민왕
흥선대원
맞고
수련
##불을
경제의
작업에
드러났다
재판을
드래프트에서
A매치
쓰레
연봉
우정
임관
접하며
카카
터치
##루이스
스페인어
천문학자
5번
고소
동조
빈번
삼척
세기
어뢰
올드
이건
점에
조류
##시나
##1의
##모스
##설에
시작하면서
실시한
보호하기
가을에
십자군
GT
개헌
두꺼
수학적
시종
앨리스
약혼
중형
하에서
##년간
##러드
##되도록
##직할
##케라톱
##렸지만
나타내고
경상남도의
회사인
자세히
다녔다
공천
수료
알프레
자작
철회
협조
##ook
##키를
##1명
##돌은
##네르
사용하면
되었다는
때문이라고
##운동장
국립공
시즈오카
미주리
가동
대북
면허
블루스
샌드
장사
좌석
회화
##이한
##궁의
##2의
##집단
##솔리
변화는
마르코
효과적으로
At
노면
돌로
병을
살라
아날
연소
인명
테네시
##준이
##벨라
음악은
임명되었고
아케이드
Mic
des
그후
랴오
하비
##사단은
##하루
##등으로
##있게
17년
SA
공표
유학생
적다
클라이언
1997
아이폰
설치하여
스리랑
극한
끌었다
방글라
비영
요하
정유
차관
축조
13세기
지구를
지구에
대신해
1890년
기본으로
판매하는
해결하기
불평
윌슨
충성
##럴드
##ors
##주의가
##ision
##대학교의
FC에서
시험을
베네딕
사례가
스크린도
꽃이
돌입
장군은
##전인
##루냐
##기독교
##더의
##근의
태어났
가깝다
Open
##일체유
NGC
겉보기
김원
니코
덮여
매매
해마다
##포시
##도이다
##왕후의
##네가
##능한
##따라
동안의
##대학교에서
해당된다
페이스북
스톡홀름
Korea
냄새
영산
저격
평화를
풍속
호출
##강과
##ux
##살의
##벽을
##았기
##적으로도
##ull
케네디
by
반경
밴드를
청룡
탁월
프레이
허가를
##9명
##드릭
##레가
##되어있다
영국에
나라가
지정되었다가
500만
근무했다
주파수
아이치현
가옥
비하여
서대문
이븐
해태
##부아
##3명이다
##변의
##냈고
경기도의
이르렀
점령하고
생물학적
제기되었다
미사일을
sy
석회
설일체유
알을
펜싱
##관련
운영을
학생들을
대응하는
ATP
해운대
방글라데
Cr
Pol
동점
연인
외에는
장흥
치즈
##테크
실시하고
도입된
되었던
##테이너
2호선
Tra
경주시
고대의
구하는
꼽힌다
만료
명이다
방화
##탄의
##들리
독일인
작가의
5분
광양
범유행
앞의
##de
나라에
비판하였다
미래통합
성우이다
인접해
MB
대각
미셸
제너
청색
투어를
항쟁
후세
##기일
##집이
데뷔한
추가적인
기간은
주연을
##ave
에스페란
전역에서
아미타
권유
긴테쓰
법무부
에콰
차로
해고
헬싱
##리얼
##주택
##장로
##승지
##판에서
종교개혁
자료가
부드러운
GDP
델타
승점
인과
인류의
콤팩트
투명
##air
##2동
##운다
##운을
##님을
##쪽은
경기로
연합군의
인간은
인간을
도메인
Live
김지
나란히
리보
불규칙
사각
시어
아바
앞장
염기
이타
현금
##아야
##카리
##티코
##당하는
##ane
가리지
1세대
3000
김옥균
18년
고든
공방
길이의
무의
물건을
수녀
점수
즈음
퍼포
확신
##보니
##츠크
##갈색
##심은
서울에
가족의
아마존
##CAF
Eng
High
가열
난민
달걀
산요
세력은
아산
주위에
집결
중국은
앨범에
개인적인
마을에서
##지역에
세워져
동쪽의
인공지능
##ield
감싸
나섰
사리
서귀
세라
실력을
알리는
영유
이내에
중대한
패널
휘하의
##킬로미터
##림은
사건과
자유형
프로그램으로
연기했다
요새를
1을
SL
구형
맺어
세레
심야
전날
출처
포획
현직
##타입
##링턴
사업에
부근에서
공수
다름
산지
생일
생체
소문이
제주시
해상에서
##보리
무궁화
매체
미쳤다
사서
재일
하르
##회전
##클로
##됨으로써
알렉산드로
가나가와현
권장
들려
만이
베드로
보헤
신동
예하
측에
##키아의
##오나
##행동
##계급
##바퀴
공개했다
수행할
나오고
건축물이다
지난날
브리튼
포기하고
올랐으며
넘게
박종
부시
연못
워크
차용
패럴
##시킴
##호텔
##황이
결정한다
앨범인
정의된다
소련은
경찰이
실패하고
개념으로
득표율
대대적인
포유류의
Geor
대포
이룩
조사에
직통
포스터
해가
##양으로
##티드
##것으로
18세
건설된
열차의
station
영화배우이다
유러피언
WH
것인지
나비
모티브
부에
유닉스
파인
해왕
##ael
##티시
10시
주장에
바꾸고
젊은이
몸길이는
경에
리옹
자생
허위
##사들이
##들었다
##행위를
##반도
##ited
시대가
기여를
아키타
ad
견인
곤란
누적
마우
만을
안녕
줄여
##sch
일본군의
마르틴
유래했다
사라진
Fr
Nor
김형
소나무
예시
처분
충전
##게이트
##미한
##법에서
출신이며
클럽의
다이어
야마구치
누구나
Dr
Sa
당주
땄다
마린
산하의
살려
소울
유목
##학이
전투의
은퇴하였다
살아있는
알렉산드르
25년
가맹
남게
시에서
중점을
칼뱅
팀과
폭행
헌정
##자리의
##친구
상황은
##cm이다
연극배우
분위기를
국적
노조
보리
붙였다
산하에
정동
토스카
퇴적
패전
##시청
##해졌고
##훈은
사용되지
국가와
표현한
1993년에
USS
##바야시
교회를
구와
대패
동대문
압력
위주로
지미
##했음을
##자르
##토모
모습은
Sci
고원
김유
다를
불화
사쿠
원격
유비
정서
합친
##에의
##제곱
##노부
##되므로
##I는
##디를
##업은
##끄러운
공격해
스포르
비타민
기하여
끌고
상경
앤더
일일
일이었다
전격
##oid
##절이
한국과
##mun
임명된
전국적으로
아랍에미
길에
루카
무척
믿는
선로
한민족
휴전
##트넘
##지정
##청구
##초로
사용되며
진행되는
##기관의
작업이
Charl
소재의
##조참판
Black
##상규명
0이
몸의
보석
스텔
아와
자크
자기의
제인
##합을
##hPa
##말에
2년간
출판되었다
챌린지
6세
가사를
대마
로버
사위
성이
오로지
한해
##기계
##타워
##유지
##덴부르크
##직으로
##난을
연결되는
물질이
바꾸는
조성된
Alb
보도했다
알제리
2라운드
EBS
고산
빌라
식당
온대
원을
일대의
제도는
켄터
허블
##수소
##주자
##신에
2017년에
남쪽은
서쪽은
솔로몬
활발히
노스캐롤라이나
IOC
국왕의
규범
맞대
바흐
올리는
창출
황족
##티미터
##밀하게
##훈을
##하기는
모두를
수준으로
후지와라노
고이
나루
반도의
수령
양을
어렸을
카르타
클러
투수로
##연료
공격했다
표현할
그래도
제안했다
비용이
AV
OST
가솔
감금
남미
동인
동유럽
뛰었다
말부터
부도
즐길
카프
컴백
##신도
20만
활동하다가
게임에서
영향이
Star
1889년
소비자
아스널
추기경
ABC
시장의
일기
포장
##국적
##본의
##받았고
대한항공
10개의
가지로
1883년
서식지는
고향인
벨기에의
그레고
수익을
하느님의
무소속
거창
레스토
복소수
선원
소통
타당
환자의
##리마
##계에서는
##타고
##중추
사용하기도
전쟁과
##ouse
고려시대의
1992년에
거부하고
겹쳐
고토
독일에
방콕
세네
출가
##루스의
##ma
##풀이
연구와
중심에
기술적
건설을
형성하는
교통의
가문은
접근할
Your
he
결론을
경작
금호
신형
침묵
함대
##토크
##FL
1위로
단식
도마뱀
의문
조세
조정의
항목
##천면
##6명이다
##증은
##ana
헌법에
함경남도
Music
치열한
TR
모인
미상
입구
전하
품질
현상은
##ner
##학적인
##속도
##PC
보내고
삼국사기
MTV
난을
노이
도왔다
이이
초빙
평평
했었다
헤어
##여행
##분해
##교에서
게임에
본래의
슬라브
3세는
IR
검정
나노
받으면서
선비
와일드
의원을
전래
##부리
##시안
##기나
##제작
##벨트
##클라
위험을
##ange
아날로그
A3
김명
렌즈
싸우는
양반
위에는
추종
터보
하프
##심에서
제24
등장하였다
##ille
내용이다
기관차
경향을
잡아먹
볼리비아
가산
구간의
대왕
로얄
모의
발병
번성
아소
오일러
자랐다
쪽은
치고
##na
##oo
##야스
##8명이다
##복의
기간이
글로브
프로세서
업그레이드
구해
다나카
동정
실존
지류
포터
이전까지
남북으로
아나키
Girl
고사
규정에
돌출
리바
마녀
손실
전국의
전기의
정선
첨단
하워드
황도
##무장
##업체
##닐라
##린을
##XX
##놀이
시즌은
받았다고
350
가져온
작성한
모니터
항공모함
Life
값은
개인이
그로부터
나은
내리는
수단으로
알래스카
언니
자칭
차를
케이스
##손으로
##벌을
공격으로
##erson
생겨났다
선임되었다
우즈베키스탄
AG
대역
마애
반격
뾰족
성에
유료
중합
촉매
키예프
헬레
도시에서
##ital
진행했다
발생하여
플레이어는
작가이다
효고현
그보다
시코쿠
##무가
게임으로
필요성을
따뜻한
올바른
가상의
공휴
농장
동참
버전을
수도를
질환
##5명이다
##들보다
##26
자유의
기반한
ref
wh
미키
불태
조국
코카
쾰른
혼성
##품으로
##업으로
##약한
생산된
그룹은
않아서
일어나고
네이션스컵
천연기념물
경질
궁전
데서
독창
무대로
백두
사전에
유혹
장소로
전지
##시게
##세요
##27
##방정
##효과
##취를
##근이
구성되었다
도쿄에서
노선이다
간신히
결별
교정
영장
음원
장을
탄도
##데라
##협의
##팀으로
##당하여
오늘날에는
모시고
2시간
강철
기회
노란
당하고
되던
말까지
부대가
인원
읽고
자메이
회피
##분과
##마크
##것도
선수단은
프랑스령
##amb
인정하는
이란의
공백
누이
숨어
아쿠
어쩔
지도를
초콜
국가보안
아니라는
이용된다
동치이다
허리케인
열심히
Cont
극심한
긴장
떠오
방면으로
집안의
취업
타자
회귀
##개는
##이야
##sc
##대륙
##연으로
##술의
##찬을
##FF
서울로
발표하고
한편으로
건물이다
1년간
언론인
방문하여
무렵에
David
매킨
사절
코시
##번지
기록되었다
30여
##iver
동일하게
서쪽의
알파벳
코무네다
자산
증대
지쿠
탐구
하도록
히메
##태를
제23
국가대표팀에
갑옷
모자
불린
유희
지장
태국의
##쥐속
##피가
으로부터
##이었을
대사관
사태가
디트로
##시한
##풍속
판매를
5000
이해할
작용하는
프로그래머
늘어났다
퍼포먼
Time
경연
무명
산성
##아트
##세키
축구를
방송되는
의미하며
이전부터
지원하고
24시간
FC와의
연합의
세종특별자치
사운드트랙
아나운서
Vol
날이
방침
벌금
수도로
##방법
##림과
영국이
제25
진행하는
컴퓨터의
지리적
나타나고
묘사한
전략을
해밀턴
2가지
싸웠다
파손
하반
##OK
##점인
1200
열차를
스튜어트
마오쩌
디트로이트
Er
Good
년간
명목
병원에서
은하의
흐름을
힘으로
##여우
선수들의
인구밀
운행하고
주관하는
바르샤바
교수를
그렸다
막는
배상
법의
상급
자체의
카이로
해저
혼다
##노에
##달마
##목록
##형제
##any
독일군
논란을
1991년에
시기에는
세월호
Up
del
늦게
머리에
목판
않자
중퇴
클레이
히사
##는가
##광년
기념하여
해체되었다
CONCA
Super
체코슬로바키아
말미암
IV
대영
춤을
트렌
##회관
##운영
##읍에
조직이
출연하여
소련이
종교의
북한이
하루에
상관없이
소프트웨어를
CONCACAF
개항
과반
광년
못하여
분지
순으로
영지를
오르는
인형
##100
##집행
##코와
중국을
50만
하였지만
기간동안
노르망
제시한
취임했다
우에스기
SV
갖지
높이가
드디어
일식
전전
##회사로
##하겐
##작인
19년
##ations
올림피아
바오로
4회
간이
금산
문과
미만
산스크
전동
주제를
차체
토지를
프리스
##사범
##나기
##롭고
##쉽게
##뤘다
목록에
위험이
경복
느린
문경
요충
유의
음향
##서스
##라니
##질러
에너지가
격투
극락
비늘
요인
장면이
주입
창녕
치른
화를
##러를
##더를
##철이
##망에
10월부터
도시인
다양체
노선으로
엔진이
##관계가
시에라
##사관학교
면서
어촌
일괄
체인
피를
##사회의
##강은
##쪽에는
선수의
1989년에
동쪽은
내부에서
안전한
프란치
용어이다
내에서는
도널드
씨앗
이겨
이득
평을
##다오
##채가
##마귀
그룹을
변경했다
마르티
NE
강간
경의
김윤
다마
라오스
심하게
원의
파산
휴식
##무는
##공단
##복음
운영되고
정의를
도입한
가르쳤다
지키기
스트라이크
스트라이커
7시
똑같이
랜드
발의
상담
아다
안도
애리조
어찌
여성을
파란
##자문
##병과
##광을
##밀히
##줬다
한국철도
중국인
그녀에게
고려하여
방법에
교황의
바뀌어
종목은
그곳에
스크린도어가
산스크리트
공습
다툼
더비
미치지
배려
벽돌
별개의
성적으로
슬픔
정성
토크
##하겠다
##묘한
##MC
##za
##막을
##망의
##경기장
단계에서
3인
내어
넷째
매력
이렇
정몽
차출
카시
하니
##보장
##코딩
지역인
131
기업이
언급했다
제목은
추구하는
김인
명은
별세
토리노
통치를
##조부
##능력을
##출판
발견되지
지나간다
기여하였다
바다에
바다의
##브리엘
동력
우아
이누
코치를
##리던
##곡리
##독한
1994
국민당
시리즈에
의혹이
빨간색
GNU
2개월
김광
드레
박지
방치
부평
워드
이양
쿠퍼
파기
포착
협연
##천이
##지지만
##ps
##석에서
지구가
전통적
마을이
이사회
않아도
가정에서
남동생
돼지
부총
불참
와인
협력을
##운이
##운의
##유사
##증권
1월부터
문제와
##학자이자
정책은
충청도
강남구
열매는
메릴랜드
시부
시속
우측
제도에
철학적
피로
호쿠
##하와
##토와
##팀에
##평론
##덕왕
분리된
각본가
부드럽
놀라운
균형을
농어
되도록
마다
벌여
신화에
싸움을
엘리트
유형의
찬양
평야
포스
휩쓸
##2는
##심으로
##맥스
사람들과
데뷔하였으며
서울특별시의
마음의
1868년
갈등이
쓰여진
몬테네
상공
악의
악마
영업을
예전에
적분
전수
##메데
##나로
##페스트
##농업
16개
담당한다
세포의
들어가게
박사학위를
##박물관에
켄터키
것입니다
공이
송신
승리에
연동
전주시
절차를
추서
##9명이다
##0년부터
시즌부터
##회의를
##uth
마르세
생긴다
지키고
연고지로
성전
튀르크
##지었다
##너가
##레스트
##쿠르
가족과
프로젝트는
도착했다
내각의
생겨난
방사성
메달을
마천루
3분
남베트남
얇은
조에
행진
흥미
##7명이다
##세다
##교사
##파르트
##직의
11시
따라서는
종류는
죽음에
가격이
혼란을
각지의
관동
국유
나미
무솔리
씨가
아리아
오대
이창
##득점
##까지를
이용해서
리그인
관계없이
선택할
1차전
주도한
푸에르토리
헬리콥
Rev
Reg
from
갈리아
격추
고쿠
다투
동요
모셔
부각
순위를
영의
예컨대
의무를
점과
점수를
타케
##테리아
##안과
서로의
떨어뜨
북쪽은
메시지
커뮤니케이션
두개골
니혼
상처를
앙골
왕가의
정읍
함수를
행동에
##로이드
##령과
##미네
##발은
##항에
##각으로
##콜라
축구단
요청했다
왕실의
1시
3세의
시정
온건
초고
##스콘
##누스의
##애틀
##조에서
##형인
한국을
정의는
대전의
공간은
구축함
스퀘
자란다
적어
전무
정인
치루
티켓
후배
##칼리
31일까지
강조했다
##데이터
목소리
가와사키
Record
간격으로
대기업
루키
리에
입지
첼시
헌신
##라디오
##워서
##후이
##해야만
국회의원을
입학하여
대단히
Do
고추
기해
바꿀
보이스
선행
아데
안티오
여파로
장인
전이
정작
칼럼
한계를
##만과
##노를
##안에서
##DS
##하기가
영화에서
##ative
음악과
그룹으로
단독으로
##과정에서
##lation
당원
밴쿠버
솟아
수복
스와
식물의
은거
장제
포수
##니오
##상업
##co
##워즈
##레스의
들어갔
발견되어
정도에
인민군
해병대
3집
가늘
비엔
절단
학과
##m에
##느러
인도차이나
가르침
수용할
체포되었다
활발하게
최연소
1승
것이나
야외
왔으며
카즈
회상
##료는
##주의적인
하나다
8월에는
설립하여
참여할
한편으로는
역임했으며
지휘를
천황이
##도서관은
아키텍처
Ev
가리는
고흥
나우
넥센
달리는
불변
성리
전자의
최강
홍문관
##기갑
##4명이다
##밴드
다양하게
생각이
그룹이
지상파
유리한
##아버지
OB
Sec
개를
내걸
몰수
무작
배수
천왕
천거
힘썼
##하키
##추진
##재산
##라이드
대학교는
정기적으로
일러스트
Mich
경인
동부에
##IX
##비오
##피에
서울중앙
##ough
유럽과
1882년
프린스턴
##클리드
애리조나
Air
Of
가신
딸이
리뷰
병이
우회
##표가
##터에서
##era
이름과
받아야
1888년
거부했다
간주된다
건조한
Club
살게
옆면
재선
정하고
주위의
해독
##지부
##치에서
##세력
##티가
##하게도
발견하고
결정에
수행한다
완성된
체계는
comp
애틀랜타
4위를
Red
강은
도르트
마셜
변광
원반
입주
흐른다
흐르고
##지던
##기둥
##m로
##정상
##층으로
음반으로
##ody
붙여졌다
성남시
핵무기
Act
IA
겪고
볼셰비
카바
하코
행하는
우승했다
지나가
개통되었다
대성당
포스트시즌
미하일
레스토랑
Night
tr
검거
불행
선은
수락
실리
일하고
종군
종을
포털
##인구
##가들은
##제도를
##순위로
##입상
##QL
점령했다
수원시
전신인
6대
동사
시애틀
일차
죽인
콘테스트
키는
##렉션
##커가
역사에서
표현이
선출된
Park
GO
곱셈
둔다
듣지
백과
쓰기도
잠정
책이다
한중
후진
##고래
##데자
##자금
##씨로
##토록
##감염
##왕으로
##진보
##액이
##경비
##받았으며
사용되어
위치가
활동하던
##km에
형성되었다
도로를
언론에
프로젝트의
대륙의
2분
2골을
5시
9개의
TBS
것일
그저
류큐
면이
반정부
우지
이항
재상
총리를
출석
치세
##사용
##스퍼
##루에
##물리학
##람회
제국과
##raph
증가하고
UEFA컵
캐릭터를
청동기
고딕
드는
모리스
본인
수염
스텝
시크
요제프
우유
정이다
켈트
태권도
##사한
##lude
##준을
##진상규명
##웠던
아카데미상
수여받았다
포도주
럭비
리조
모른다
승무
원인으로
##전략
##표는
##해지자
만들었고
선거인
마이애
보존되어
출발하여
관직에
압도적인
노보
서산
시에는
우한
콘솔
혁명을
##시기
##공사의
##나에
##나시
##론으로
##향교
##대학교를
1892년
친구인
##연합회
하늘의
ATC
유니버설
가솔린
2시
다윈
드라
막스
미군의
우파
자아
전산
죽게
집어
철폐
##수입
##분교
##정권
##미사
##민과
##창한
200만
아프리카의
Mark
동등한
비영리
고문을
목적이
부합
선종
입양
자책
재래
중엽
채취
카지
펑크
혼동
##편은
##손의
시작하고
##ator
필리핀의
AB
Euro
James
공약
도래
명인
오락
폭파
##했습니다
##속에서
##버른
##물인
##되나
##집에
##줄기
##이라며
##ena
영국령
참가할
제품의
너무나
A의
묶어
부다
상파
옮긴
저는
전복
코펜
해부
##부에는
##풍으로
##lin
##디와
7월에는
의미이다
설립되어
임명하였다
##urg
학생이
로스쿨
1은
4가지
50년
기와
원통
페트로
프론
허리
후작
##통치
##웨이트
##레이트
해당되는
반응이
본질적
1가
App
Dra
거리의
공존
보은
세븐
이송
키가
함수는
##oot
##1명이다
대한민국을
내용에
항공사
2세와
이번에는
약속을
Ke
몽고
상록
접해
조롱
청송
카테
투항
##전까지
##조리
21세기
로마에서
2세대
출판된
불안정
향토문화유산
College
마누엘
번영
압록
행성이
##자라고
##28
##설은
##D의
대표가
작품에서
컴퓨터를
헌법을
프란체스코
경호
단어가
마리의
믿었다
삼중
세우는
예는
체제의
함양
형인
##지오
##청에서
##국이다
##어인
라이더
라이선스
구단은
당대의
사항을
연희
인재
파랑
##권에서는
##미치
20분
프로모
대표는
제30
여겨지고
아나톨
장애인
중성자
간략
군부
대대로
도둑
목성의
정전
정하는
질량을
총리는
표를
##원수
##해석
##졌기
##위원회에
만들어져
가족을
디자인은
선수단이다
벨라루스
곳곳에
##디나비아
##데자네이
UC
게릴라
극우
습윤
하치
해군은
현악
##공연
##yd
##요의
##비서
박영효
카탈루냐
고장
보복
비전
선동
천천
페로
호족
##회원
##프턴
##감의
##플레
##타인
##창의
##예가
공격하는
뉴욕주
3년간
전략적
1848년
작성된
레오폴
코펜하겐
GR
공명
관점
문하
북유럽
선천
시도를
신입
##이시
##러브
시작할
중심지로
개인적
버전으로
이승만은
Tour
감수
공적
낙하
롬바르
블로
소피아
이회
정종
쪽에
청나라의
컨테이너
화엄
##보와
상업적
말리
바에
봄에
수로
수교
알폰
은혜
인증을
전까지는
집회
컨트리
피오
허드
협정을
##라드
##지스
##토프
사용되기도
정책의
일어나지
영역에
USB
브뤼셀
4개월
가타
따왔다
막부의
석불
섬과
아빠
여인
전함
제천
좌측
중위
짓는
찍은
패트릭
##기아
1992
일본군은
도로가
제정된
어렵게
성향의
뉴턴
도야마
동탁
우치
후기에
##아래
##화문
##내었다
않았다는
헤이안
하노버
프랜시스
조반니
Mer
계단
관절
굴절
더빙
복장
성으로
커서
##시인
##시브
##키스
노래이다
유래하였다
스튜디오에서
급속히
J2
Jos
과장
만년
바우
보낸다
본부는
봉화
장르의
화학적
##양성
##업의
##LA
유지할
분석을
명명되었다
우려가
트럼프
Paul
Kn
대덕
보강
부대의
영지
탄자
투수이다
##스레
##축을
##법상
##당한다
13개
아이가
이탈리아는
레이싱
실시되었다
제한된
성장하였다
API
관해서는
American
군정
대화를
멜버른
스칼라
에레
##퍼런스
제1대
##운동이
플레이어가
1988년에
왕국이
해안에
생성된
##ublic
의혹을
Mart
West
갤러
공자
김승
넘어서
맛을
##키타
##여단
##민스터
##직은
사이로
##는다는
중심을
방향에
설명하고
예선에
명확한
유로파리그
패럴림픽
4세기
슈투
유타
##ris
##스키는
##64
##바위
##프로세
홍콩의
Thom
유력한
초콜릿
J리그
Ser
ng
공으로
끼쳤다
남성의
누나
달라고
아유
연한
주계열
직위를
##정신
##심과
##be
##셨다
##etw
지나가는
보내어
대중의
통과하는
리우데자네이
se
강의를
교원
면제
미세
성곽
스킴
시몬
연이어
의회에서
타는
허난
##다를
##청장
프랑스군은
##우스와
2009년에는
분리되었다
거두며
지닌다
only
용인시
것의
구하기
길이를
꿈꾸
머신
수업을
영어를
입국
전락
증상이
지는
카타르
패하였다
##NG
##2명이다
##비용
##MI
개발하였다
유지하기
논쟁이
규정을
극장에서
단원
때려
로페
많지
배속
의석을
희곡
##자라는
##달라
선수들은
1893년
부족으로
주민들의
앤드루
##슬레틱
스칸디나비아
도르트문
Des
국외
나갔
모범
신주쿠
실재
여겼다
오해
지극
##위한
##협정
##번이
##샤오
100년
##들이었다
정치적으로
단체이다
명확히
프랭클린
할리우드
Mi
Tw
cont
te
견해가
도스
메뉴
산이
시장이
위구르
전화를
혐의를
##ump
##누마
##ero
##ari
발표하여
경쟁을
밝혀지지
불과하다
Instit
3할
Cal
Min
NS
관음
그외
김천
밀란
사의
선봉
섭정
접수
정자
코드는
평의
##개미
##니티
##색이다
##유도
##블랜드
대표를
어느날
효과적인
결합하여
감옥에
간첩
놓인
모르고
사영
새긴
양자로
예고
주주
처분을
해피
훈장
##oint
##현으로
그것의
여겨졌다
안정된
서양의
##berg
JTBC
공고
모차
잡는
전미
제임
타지
호크
##관계에
##보수
##29
##삼존
##몬트
##약의
##학교의
활동하며
영국으로
##호선이
과도한
##스테르담
헤르체고비나
국악
남았다
남자가
목요일
신기
의지를
이코
접한
조인
##회사의
##공화
##for
적용된다
은퇴했다
전반적인
세인트루이스
독자적으로
영화제에서
잃어버린
말미암아
Val
경로를
노인
단말
동네
병원에
볼프
빠졌다
신종
원리를
위촉
자결
중등
짧고
카사
톈진
홍수
##축제
##조치
##티넨
##ION
##캠퍼스
2차원
무술
임원
죽기
최성
파병
##전대
##미노
##름의
##승의
설치하였다
법칙을
3일부터
HMS
맞았다
복용
볼티모
부파
부인은
서열
온도는
작다
##하르
##자리가
##FS
12월에는
있어서의
파일럿
당선된
##여래좌상
카스티야
관제
단체의
부등
생겼
수사를
영암
장소에
정월
##다람쥐
##공장
##상도
##소녀
9월에는
영향력이
##ura
실시하는
친구가
종료되었다
Ang
게오르크
요하네스
공군의
모른
브룩
신학자
유영
총회
컸다
##판매
##온을
##통은
진행을
앨범으로
소유한
만들어진다
주인공으로
저항을
영원히
##include
공성
무서
상에서
염려
의령
자서
체제로
타협
트란
폭이
##머는
##유예
12세기
국가정보
14세기
자유당
발전하였다
운행되고
서비스가
1886년
부근의
##프랑스
마카오
애비뉴
마오쩌둥
2TV
LED
Pre
수필
파고
파는
##척을
하나로서
2007년에는
인간과
결승전에
발달한
가져다
6번째
Award
강행
내리고
성북
수산
연안에
점거
정상에
중원
지시를
##45
##디드
문화에
##illa
공간에
지배하는
##app
안정적인
Inc
정상적인
##ensis
쿠데타를
오세아
Met
매직
뿐이었다
사신
인력
자기가
종래의
퍼스트
흥미를
##구스
##대리
경제는
비롯된
받았던
위원회는
정당이
카메룬
가로지
클리블랜드
일제강점기
프란치스코
가의
버그
비중이
세금을
양식의
에반
엔터
잃게
전담
포토
황제는
##르다
##화할
##무기
##O의
##암의
##색과
##히게
교육에
2008년에는
출전하지
걸쳐서
스트레
전해지는
합류했다
알렉산드리아
우크라이나의
토착종이다
레인저
철저히
더글러스
관세
노후
말년
모모
비중을
상서
주었고
프롤
피라미
항성의
##포와
##대성
##한이
표현은
클럽은
실시했다
개편되었다
4의
7세
결핵
군용
그만큼
느낄
무안
소극
손실을
이언
작전에
조로
주조
타락
효종
##트레
##지리
##크레
##록을
##복합
##됐던
203
##되어서
경기장이다
3월에는
대항하여
익스프레스
줄기세포
상파울
매수
물체
예멘
저자
조형
허정
##대칭
##자고
##atch
되어야
220
이적하여
사상은
외국어
제정되었다
효율적으로
대니얼
5회
가중
구장
국적을
남산
동전
문학의
송출
실무
예선을
초당
##mb
##세였다
##비안
##형문화재
##매김
한다면
경기장에서
활동과
##ety
결혼한
국내에서
##드리게
승리했다
공항으로
받아들였다
무엇이
아인슈타
Song
가이드
그밖에
나간
맥락
민정
생명을
전당에
총을
출구
측에서
##시카
##IST
사용자의
독일군의
비교해
윌리엄스
항복을
인기있는
유아기를
4천
7대
게리
교회는
맡았던
바꿨
보증
페레
포럼
픽처
##대회를
##방식
일반적
역할은
바탕에
CG
King
강화를
냉전
모스
못했던
성매매
세습
소의
소행
이모
적게
파푸아
##사다
##가족
##채는
##퍼레이션
##손이
##린과
10위
개발했다
제26
수록되었다
스테파
침공을
기인
기성
기법을
용도
패밀리
##명칭
##토로
##감사
##파리
15분
프랑스로
언론의
종목이다
영원한
매카트
나이는
리베
서부에
설비
세련
송도
이스탄
전적
지자
코호
플리
피할
형용
##브가
##부분에
진행하였다
노래로
소설이다
산업은
어머니와
##지방검찰청
투표에서
미니시리즈
가공의
MA
각국
베리
사슴
성악
식사
요정
육체
제대
질문
징병
체제가
테라
투여
흩어져
##있어
##ball
10월에는
따르고
진출한다
보호하고
대체되었다
조약이
원칙을
오리온
##ection
Dream
Out
가브리엘
간격
낮다
단계에
베오
신민
의원의
전구
진사
##가이자
##천은
##루에서
##어족
##히데
것이므로
시간과
정보통신
현대자동차
분야를
피해자
##km2이다
케이프
열대폭
도덕적
친일반민족행위진상규명
Associ
도미니카
AL
간혹
나갈
도봉
발해
안된다
잠깐
직교
칭송
독립적으로
경상북도의
1세와
소재지는
텍사스주
코스타리카
검사를
게스트
공양
공로를
답변
로런
맞춤
명륜
모색
복권
상기
서진
성도
승용
임의
자제
잦은
캐시
##라나
##면적
##천리
##정부는
##히지
1990
구성은
러시아어
##ney
규칙을
함경북도
포유류
시트콤
가군
단층
단계를
마키
목재
서스
송파
자란
접어들
차세대
코난
택시
한림
##EST
##당할
1993
방송이
제27
2010년에는
지원하기
240
담당하였다
1887년
차례에
Best
TC
도리
별을
별명이
스플
연립
열을
적었다
주권
찰리
##화하기
##공개
작업은
자료에
고양시
대항하는
레드삭
노태우
데스크톱
RS
고트
반포
손잡
시이다
안드
얘기
##문서
##도상
##위에서
##당인
##익스피
12개의
계속된
학교는
반응은
##지역으로
제4대
느끼고
후계자로
암컷은
40년
구단이
니켈
다목적
드리
면을
사탕
상원의
여부
유해
장소를
탤런트
##가미
##여명의
##도스
##내려
##레니
##복은
활동의
##스키의
##그룹의
심지어는
SNS
요르단
사헌부
에콰도르
GM
노랑
당뇨
로베르
무대에서
반전
배달
배터리
어리
에어로
오산
정주
정적
종영
카네
##지거나
##일기
##제비
##거의
##P는
사이먼
음악이
번째는
자연의
부르게
오케스트
3선
Cro
ne
금환
온다
입수
##전부터
##루브
##태수
##철학
##융합
리그로
공격은
대전차
노래가
노래의
비교하여
검찰은
코로나바이러스
##방향으로
달고
만났
박사는
아델
양육
용어가
의문을
인가
장녀
치는
##정부가
##오로
지역에는
설립하고
사랑과
대중교통
여겨지는
계통의
Pla
닮은
대청
댓글
문무
반감
우간다
전대
전하고
전역을
조이
증폭
##기며
##궁을
##내버스
프랑스를
생물학
보이게
##노동조합
미드필더로
6세기
Sam
경건
너머
넣는
무리를
없었으며
율리우스
의과대학
칼로
##ng
##언스
##자리는
##곡동
##모어
##저기압
##바둑
경기장으로
##ates
들어왔다
5월에는
정의에
##대학의
애니메이션이다
북한은
옮겨졌다
##주식회사
루이지애나
7세기
기종
다리가
등에게
보령
싶다
오기
원숭
음운
입는
팔아
##컴퓨
한국프로
##위원회에서
이론이
물리치고
공산당의
명령에
##지역에서
연주를
완벽하게
Rich
높여
보나
사무를
안토
이기고
토트넘
헌병
효과는
##정사
##법률
##되다가
##복이
##링겐
20개
배우이자
인도양
승강장으로
##나무는
1864년
포항시
도서관이다
지칭하는
데카르트
나트륨
도이
불분
사상의
수목
암석
암스테르담
없으므로
주세
파나마
홍성
##ula
##주간
##코토
##끄러
##eration
아이콘
운행이
아시아의
주민의
주인공이
나타나지
미야자키
리더십
우루과이
1이
3점
Ent
기고
신진
애슬레틱
한가
##net
##살에
##승으로
##거가
기준이
경제를
정보는
1863년
아직까지
스테이션
제출한
철저한
김준
시노
자와
키르
##두의
##성인
##종교
##티넘
이름에
1891년
성장했다
게이오
하늘을
성향을
대의원
2에
4로
BL
Mor
권위를
기뻐
다듬
돕는
소생
정재
한의
##카쓰
##례의
##요리
##조사를
##더가
그리는
##ster
조직은
2021년
패배한
부모의
##여자대학교
예전에는
가라앉
미루어
소말리아
기적
못했지만
앞선
의회에
자진
중공
총무
##사르
##메트
##ular
##수교
##35
##타이드
##그마
##D는
##근은
발전소
##eck
김정일
5세기
국회에서
대접
되므로
두개의
말도
모호
읽을
작사가
퇴장
한족
##리드
##니코
##하로
##제에서
##견이
15일부터
4월에는
러시아와
프리메라
일으킨다
아프리카계
방사능
지바현
명성황후
마다가스카르
City
DR
gr
겪은
공감
급히
때를
라치오
맛이
맥아
방안을
산을
서바이
성에서
위스콘
유클리드
읽는
좀더
집적
타우
포격
현장에서
회사에
##회사가
##겠지만
##TE
##품은
##학교에서
비판하는
##지역을
요시다
프랜차
천천히
근사
박상
버마
분수
중부에
집정
팬들의
호를
화랑
##지않
1991
선수였다
다이쇼
##시간은
1년에
이사벨
둘러싸인
##고등법원
것과는
나뭇
제로
지부
철종
합천
##위치
##어사
##달의
14개
유럽에
방식에
제한을
분포하고
파이터
강조하는
북동부
##가능한
히어로즈
새끼를
호르몬
6번
it
국한
보로
생전에
예로는
진흙
청자
체조
파우
핑크
화해
##절로
##집은
##코로
##죄로
발견되며
보호하는
##irst
아무것도
파견하여
증거를
인테르나
Win
공장을
낳는다
넓고
띄는
맞춘
맥주
병력이
최영
퇴직
풍경
휘말
##박을
##역까지
##출력
1988
작품인
평가가
기념하기
그림은
집합의
Windows
감자
구한
루돌프
마운트
만드
세바
##BL
##분류
##EA
##테의
##당했고
##텐셜
이용되고
스타일의
요구에
기관이다
자리하고
영역에서
전반적으로
의사소
크로아티아의
Bre
각자의
마비
말고
시우
지린
차츰
캐논
##부원군
##시다
##가게
##제철
##증에
이르게
##시켜야
##ello
지붕은
##클레오
브래드
2연
배에
성적이
재외
토모
##B48
##만명
##운수
##나라에
제2회
계획의
##민주연합
##미술관
##span
4명
iOS
교회가
나일
다마스
무언
세트
수차례
여단
여자가
추억
커플
통보
##배가
##세트
19세기에
시작되었고
아이들을
생각하자
차지했고
앨범이
##ason
이론과
태양과
전해지고
취임한
장기간
미쓰비시
조선인민군
거점
레일
숫자는
아쉬
을사
음이
질문에
청량
최장
토미
한큐
##수단
##호르
##변속
##봉은
15세
프란시스코
미야기
줄어들었다
경력이
고생
끌어들
두가지
북조선
뿌리를
세르게
셀레
아치
정화
코소
판정을
##포에
##주사
##그라운드
1970년대에
6월에는
구조와
기타를
공개적으로
유지했다
1866년
단체인
중요하게
활용하여
헤르만
등판해
Lib
Rh
개기일
광해
디에
모하
바스
보자
비어
샌디에
성동
아브라
않다는
의성
이브
토목
항등
##노와
##비언
##PA
정당이다
움직임이
미래에
데이비스
##네티컷
헬싱키
21년
본부를
소외
자라는
퍼즐
##하리
##천동
##루스는
##왕국
##노르
##RT
존재했다
중앙의
고려사
1일에는
바이어
선출하는
취득하였다
분기점
살펴보면
간사이
강하다
도카이도
발령
아카이
일대에서
재난
##이론
##법이다
##런은
##ze
##료의
##캠퍼
생각한
기원후
역할로
시리즈이다
형식은
1592년
콘서트를
가깝게
##예정자
Hol
마술
양조
왼손
축성
폐렴
##가들이
##암은
##비우스
##컵을
규모를
500m
1987년에
신앙을
뉴질랜드의
아오모리
와카야마
치명적인
격자
공예
규탄
늑대
도피
에마
이베리아
전적으로
책에서
쳐들어
카피
파벌
호랑이
휴대전
##가쿠
##하신
##율과
##짐에
사용하게
##its
상태는
조직에
스페인은
생활에
충청남도의
아랍어
피아니스트
참석한
근본적인
##타나베
Michael
1조
3억
Ap
Rad
거인
걸리는
공장에서
급격한
무역을
밀도
의약품
일간
일식은
해전
흑백
##사들은
##치히
##으려는
##노스케
##집의
##택이
##확인
계속되는
2005년에는
이동하는
추정되며
증가했다
귀국하여
확정되었다
산맥의
MSL
이스탄불
2를
ON
고아
기니
능동
맡는
머리카
병자
복선
사쓰
색이
성적은
신상
안창
예일
왕조가
원소는
장점이
제재
집착
책으로
##메스
##하늘
##정류
##마디
##마스터
##티를
##티즌
##모양
아이언
사실에
국가대표로
개봉되었다
가르치는
몇몇의
공헌하였다
갈리
그릴
대령
대좌
엄마
여학생
역도
일족
준수
쪽이
철학을
체스
측이
##길에
##륜구
##조각
##황의
##쾌한
기록과
아이오
스타일을
Stud
나카무라
Group
방지하기
Phil
볼로냐
Cup
ML
거세
교사로
밖에서
상연
생리
세분
소식이
않다고
여지가
우두
원활
유태
전위
종묘
직책을
충무
코네티컷
호스트
황제를
##uch
##초가
##심사
##용과
##창이
##경쟁
##통과
최대풍속
선언을
오스틴
살아남은
하노이
모차르트
거칠
긴키
농경
만난다
물과
엑스포
오디
이제는
장관이
##고에서
##등한
##군수
##민들이
것이기
것이지만
연구에서
현대적인
지도자로
국가대표팀에서
명령했다
1876년
노르드
알렉스
공항은
밝혀진
효율적인
고유한
느끼게
오이타
San
von
공세를
구호
극도로
단장
마스코
맡기도
몰두
발기
사형을
쏘아
완결
##배치
##der
##소시
##방과
##음으로써
##평의
##른베르크
11월에는
프로그램인
로마에
분류한다
달러에
프리미엄
자녀를
빅토르
부장판
5의
몸은
종신
중수
치환
함흥
##공으로
##년이
##역이며
##있지
##바브
나타날
요구하였다
작가가
선생님
##한국당
박쥐의
늦은
막대
쌍대
익산
주먹
지점에서
푸아
훈장을
##마니
##말의
##바리
##근을
7월부터
국제적으로
##대학을
집합을
근거가
선고받았다
패러디
Wii
res
모았다
발동
뱅크
서부의
에른
연설을
열두
즐거
탈취
패했다
##들처럼
##업과
##결혼
##알라
부분일
추가된
클럽에서
수행했다
캐나다에서
자료는
아키텐
대규모의
비율을
엘리자베
피렌체
불확실
달에
앤서
유령
이메
정칙
증진
지분
직행
형제는
##두었다
##지라도
##립트
##것이
##놓았다
1980년대에
조선왕조
관련되어
시절을
2006년에는
음반에
2018년에
##시켜서
자료이다
대사헌
미래를
소수민족
학문적
1인당
위스콘신
2위로
거룩
결핍
깃털
말과
버라이어
셰익스피
쉽다
원소의
은메달
호찌
##하길
##례로
##커를
클럽인
받았는데
표기한다
몽골의
원칙에
논쟁을
민사소송법
대웅전
5일부터
Mod
대출
묘지
무어
부당
이봉
장원
타임스
파충
하단
했기
##하더라도
##li
##행렬
대한민국에는
2012년에는
후보의
##ros
서로를
주변에서
가족이
수록예정자
남편이
증거는
##사이클
올스타전
수수께
캐서린
5명의
DF
Dev
과연
드루
러일
병사를
생명의
시국
신원
영월
위를
이별
자민
정진
진한
찬사를
헌액
##라호
##연대는
##히드
##모노
##료가
##훈이
공격이
국민들의
노동당
기관이
##시간이
결합을
지명되었다
체결된
프로세스
니콜라스
객체
격려
그나마
노드
높았다
레버
슬램
시가지
양측
정이
클리어
평형
후루
##아비
##극을
##질에
##DA
##웨스트
##몽골
들어오는
공간으로
수행하고
1881년
창설되었다
1등
기호는
다쓰
로비
메카
밀도가
배운
수페르
숨을
알맞
외부의
용서
파주
혐오
##서인
##전용
##든다
##ior
##브나
##후가
##흐트
##elf
1860년
##트가르트
바람이
시티즌
플래티넘
거뒀다
금환일
Fri
감찰
관료로
문자로
시합
아프
입자의
재팬
출동
취리히
혁명이
##법원에서
##조한
사용하던
정치가이다
유명하며
언어가
이동할
유래되었다
후반부터
체결하였다
이슬람교
단계로
네트워크를
목소리가
평안도
주지사
벌어지는
HTML
강대
도출
디비시
먹이
손상을
안타를
요괴
일리
일진
자카
패킷
##배에
##했음에도
##탄은
##피크
활동했으며
시즌이다
반대하였다
어머니를
5차
Rep
as
거치면서
내무부
목회
성명을
세상의
시위가
열려
원정을
총리로
##와라
##학사
##데일
##행에
##모르
##섬의
##디자인
##증과
으로도
2004년에는
연합군은
유니콘
대다수의
카카오
탁월한
1개월
3시
광물
도사
박성
서인
에바
쳤다
하쿠
##공화국의
##lor
##업무
##변호
##웠으며
##였다는
3월부터
가지지
30일까지
전투로
기술과
지원이
##uss
이론적
야구장
주변에는
부르주
수준을
측정하는
장남으로
AI
고마
교회에
백만
보낼
불필
사단은
아드리아
안되는
유스
자원을
장소에서
찍어
후예
##화되고
##36
##자에서
##TF
##노미
##되었음을
##학과에
뛰어넘
멤버가
만주국
대비하여
성씨이다
IMF
수수께끼
7번째
기대를
남하
노바
뒤늦
불완
시신을
실각
완도
외래
정려
정경
조차
##원인
##공작
##소재
##심에
##광이
##쳤으나
에너지의
남동쪽
Cap
구경
등지에
딸과
우왕
자세를
천수
청도
청소
탑신
하급
현대에
##보국
##ien
##건축
사업이
에너지는
여름에는
Techn
광범위하게
Center
중소기업
FK
것들을
공리
도루
둘이
말에서
바리
부러
신전
아들의
앨리
울프
의류
정계
주니
최남
##마라
##오던
##yp
##절에
##각형의
위치로
##이었다는
영국군
정의된
활약으로
공간이다
1861년
아무리
이승만의
가격은
웨스트민스터
브리티시
방사선
공헌을
아이스하키
고르
궁중
시신은
우세
포식
##EP
##마케
##테는
##그는
가능성
경제적으로
분류하고
목록을
기반이
예술의
300만
##aster
콘스탄티
수요가
위안부
onlyinclude
NP
도네
민요
법에
사설
상점
심해
양평
적외선
조니
조화를
줄리아
##af
##랑을
##모음
##협회는
##피트
##GA
그러다
포함되지
선거로
210
표현의
클럽으로
적용되는
연주자
가르침을
천황은
거절하였다
APG
무시하고
Exp
코트디
당내
섞여
신세계
애완
유역
의상
하므로
##오자
##초는
##집으로
한국독립
제작하였다
##ret
중앙정보
가리켜
국내에
추정하고
국가대표팀은
1865년
1873년
야마모토
바다를
북서부
코호몰
Av
Lou
괴물
달했다
당국은
오스카
이범
있듯이
적당한
정제
직을
취한
##니즈
##락의
##통상
##왔으나
존재로
##시키면서
##시키는데
지나면
영토로
아내가
부모님
거리에서
북동쪽
미나모토
방정식을
이바지
손해배
Bab
공안
과는
관상
구성을
군청
돕기
뒤의
상소
은신
조셉
지사
타르
투자를
필연
##ring
##선형
##신인
##버스는
##런의
##현실
기록이다
아이들
가능성도
##기관이
물리학자
이성질
출간되었다
히틀러는
유라시아
끼고
당황
쌓았다
앨라
직책
총애를
허베이
##리면
##니언
##oe
##카쿠
##버의
##폐합
그러면
이름도
독일군은
일부의
기원은
기관의
##호선과
행동이
연루되어
삼국지연의
민족문제연구소의
제너럴
7번
tv
동메달
면적의
상원의원
새뮤
에페
이호
이바라
인적
자음
제의를
조슈
줄리
참의원
패자
##1은
##보스
##군주
##ila
##패의
16세
활동으로
과정의
기억을
명확하게
스퀘어
고다
나무를
동서로
마요
원종
장이
콜레
##불이
##항이
제2의
모습이다
도입했다
##방송을
가톨릭교
1985년에
개칭되었다
북극점에서
Charles
남작
단체가
동로마
두각을
베컴
보이지만
어시스트
역학
요절
재료로
찾고
크리에
화요일
##로라
종류로
1880년
450
부정적
경성부
인도네시아의
국정원
비스마르크
colspan
김희
다발
모금
승하
시네마
신봉
주역
추계
팔작
패스
##화산
##척이
동안에는
주장도
소련군
##기관인
하이퍼
장악하고
Hen
RC
거점으로
교류를
기쁨
남인
동형
매끄러운
맹세
순차
위생
인정을
전멸
친족
효자
##임새
##하되
##약이
시작되었으며
중국에서는
예정이었다
##unction
가문이
사후에
이뤄진
외야수
8세기
Bus
Mr
가토
경무
과테
미성
방어를
본인은
없으면
없었지만
이홍
전원이
증상을
지내는
질량의
추존
협회의
회장으로
##메이트
##은하
##분한
##직하고
##RI
이용하고
공격할
##스터의
사무소
후쿠오카현
##슬라프
구이
내린다
빛나는
수퍼
스트로
앞세
왕과
위함
자위
장벽
지오
지위에
##로워
##르스
##지법
##비크
이론에서
노선에
##ope
헌법의
제안한
라파엘
갈래
감상
광고를
아칸
작전은
정권은
##개에
##로스의
##로니아
##부시
##키나
##gan
##독을
제29
구조이다
생산이
과학의
조선민주주의인민공화국은
제이슨
Heart
필수적인
비정상
전성기를
6일부터
WC
end
것인가
끝을
떠난다
미식
보기도
블레
수인
수중
월트
장덕
장쑤
줄이기
출전을
평탄
포로가
##언론
##31
##분열
지방은
##이스케
기술로
공화국이
스트레스
하이브리
중요시
남편의
받아들이지
감리교
오세아니아
KN
대위
뒤에서
마땅
문정
부채
비아
상소를
손님
여배우
염소
완비
이같은
철강
##구간
##헤드
##백이
1940년대
이전하였다
조지아의
원자핵
Fre
J1
공로
극작가
네모
방대한
산호
안전을
없음을
온난
조계
토양
##고시
##ule
##피오
##나라가
항공사로
배치된
직후에
갈라져
##ship
스리랑카
공세
군복
동진
띠는
묻혀
상단
정당의
키보
함대를
##대회에
##OH
##UN
##진구
##코치
##바가
##통에
##숙은
일반적이다
구조에
접근을
자격이
플랫폼을
빠져나
순서대로
친일반민족행위진상규명위원회가
2일부터
때와
매거진
성산
아들은
안고
조영
한달
##고지
##청과
##체국
##con
##정주어
2011년에는
정보의
폐지하고
요청에
기여한
발행하는
1980년에
특성상
##고등보통학교
행복한
제19대
날카로운
어촌정주어
3호
7일부터
you
교장
남매
뉘른베르크
루비
박해
사수
상이
설계를
왕가
유수
이사를
장면은
충칭
코뮌
현무
##ling
##yr
##렌스
##박이
##박물
##절의
##쓰고
##훈의
12시
그룹에
나누는
성격의
라이브러리
혼자서
2단
Big
Tri
가다
가쿠
김선
미에
비스타
선으로
않으므로
자립
조심
태생의
피카
##문인
##대비
##달라는
##비치는
##큐슈
하나씩
영국에서는
진출하여
보통의
경찰관
적용된
설계되었다
1986년에
반란이
지역에서만
가정용
트랜스포
로렌스
계룡
레즈
벌이는
연도
옥천
일주일
칼을
평민
혼혈
휩싸
##46
##암동
##마켓
##한은
대한제국의
30만
인해서
받아서
개최되는
모델의
증가하는
##cm의
캐릭터로
##aint
느끼는
##너스컵
엑스박스
클레멘
무산되었다
오클라호
##ency
맥스웰
##etwork
버라이어티
23년
9세기
거쳤다
계엄
김보
뜻하며
법안을
비싼
산에
성우는
의회가
전기를
절망
지침
차오
틈을
한사람
##인간
##와도
##하곤
##스케이팅
##지어
##성장
##gram
##충은
##제이다
##안보
문화는
##스터는
가운데에
역임했고
##ops
Champ
조약으로
제한이
유니언
삼국시대
북서쪽
올리브
##상태가
투쟁을
##엔터테인먼트
Let
Not
나지
뛰는
차이나
추리
파면
호랑
##부스
##ham
##타도
##순이
##금과
프로축구
대학은
판매되었다
개인용
대체할
노부나
LCK
초신성
LS
Tom
가루
길다
김연
네티즌
당진
대나무
등번호
로트
말린
수요일
숫자를
스윙
심포
자코
주니치
차종
페니
##아지
##대행
##네트
##by
##반은
##바오
##딘은
이상은
##ions
레이크
기념하는
##선거에서
##eae
노부나가
설일체유부의
2위에
대에
문양
문자는
신해
예가
오일
인코딩
잠실
조부
최용
추축
팀이다
화제를
황실
##구이다
9월부터
아이젠
죽음으로
United
무엇을
3남
Ver
가문을
내포
데미
말하자면
머리가
박재
보며
상부
장치가
중이며
타타르
##하이드
##B의
##먼의
2006년부터
학교가
않았을
1862년
살아가는
Lee
클라크
사이타마현
3위로
도키
만날
번도
살짝
상고
시호
영천
점검
진수
천사
홀리
회장이
##궁에
##캐스트
일본식
학생을
타이거즈
덧붙였다
미토콘
2번째로
mod
간결
구례
군대와
끝나는
바와
발자
선양
설문
수시로
여론이
위조
제왕
조회
지출
통하는
평원
한창
행위는
##시이다
##포인트
##unt
##대수
##남부
##러와
1월에는
제작했다
##시키려
돌아가는
저지대
달라진다
들어서면서
내놓았다
세네갈
NAT
Off
XP
거꾸
건륭
대사를
사신을
샤이
서프랑
스킬
연말
열릴
죽여
판본
햇빛
향상을
##강도
##표로
##선수로
##기면서
##토끼
##함대
##맥을
14세
3월까지
국민투표
종류에
입단하여
##angu
라틴어로
Association
새뮤얼
어촌정주어항으로
Serv
글자를
등에서는
모욕
못하도록
바이트
베풀
불균
섬이
##르카
##BI
##미래
##번호는
사람에
다시금
이어지고
마르쿠스
결승골을
##ague
통일을
1870년
사라지고
에이전
탈락했다
제후로
##살이풀
발라드
클린턴
Sun
눈물을
새정치
알프스
어우
운수
월터
하타
##섬유
##코어
##움과
10일부터
중앙아메리카
1872년
배치되었다
캐릭터가
전달하는
현재까지도
성능이
##ization
나폴레옹은
관장하는
노원
도로는
물체가
버스를
왕조를
적발
측면을
##담당
##1호
##2호로
거두었고
라이브러
비틀즈의
후지와라
펠리페
각지에
기사가
남방
내며
박진
발리
번갈
새마을
셀주
영덕
##200
위치하여
보고서를
종교는
베이비
작가로
이해를
합류하여
문신이다
Great
슈투트가르트
고성군
골짜
과잉
동상
뚫고
매디
진료
타인
하키
해시
##사자
##ren
##국립
##거스
##막이
1989
감독에
소속사
이해하는
채택되었다
형사소송
합격하여
구역이다
막고
보이기
시오
양대
이므로
전자는
초부터
후유
##인사
##아니
##포타
##구장
##오게
##2가
기준에
생각하여
증가하였다
설계된
움직일
Arm
연산군
건립된
신도비
##라에몽
서초구
반역
반죽
본사
순서로
쉽지
에두
요즘
이보다
잭슨의
즐기는
징계
편안
하후
##해질
##할린
15개
구성하고
사망자
임명되었으며
자료로
파괴되었다
근거하여
공부했다
로맨틱
이순신
1500m
피츠버그
부에노스
에른스트
1군에
너비
돋보
벨리
불량
샤프
소문
속이다
여기는
정도는
주부
지우
철도는
##로폰
##구멍
##대서양
##초와
##발생
##네오
##렸다는
##하지도
독일을
출연해
인도에서
인도유럽
인물의
소설의
거주한다
취소되었다
구스타프
글래스
Ber
RT
규정이
기장
당하는
리히
묘소
불신
제리
행사가
##임의
##극의
##천년
##버스가
##조연
##바인
200여
10억
한국이
2004년부터
그린란드
전차를
채널을
Jean
인테르나치오
4분
결제
경계에
바울
시선
아종
안중
이문
이례
이길
입상
히브리
##동원
##표의
##천으로
##현동
##유산으로
1987
국가들은
중국공산당
이루지
필요하다고
자리매김
책임이
베스트셀
Trans
ac
농부
다우
다행
다저
도라에몽
면적이
삼림
서거
성행
아흐
울릉
자국의
캐리
형제가
##트트릭
##C는
##토쿠
##물리
##움이
조선후
존재는
진행한다
참가해
##문화의
방영한
조사에서
정규리그
1867년
슈퍼스타
해석을
가르쳐
행동은
사법시험
올리버
논의가
숨겨진
노르망디
750
Bea
Mont
di
급증
라울
로드리게
섹스
앞둔
앵글로
##니우스
##3호로
##소총
##살을
##락은
영국인
수상자
대중적인
소재한
스스로의
엔진의
체결했다
홍콩에서
고등교육
포도당
끌어올
인상적인
뒤늦게
PA
RA
꾸며
로고
로타르
미카와
산티아
섞어
식을
열쇠
월화
이겼다
참수
책이
켈리
클랜
##와서
##시설을
##라토
##일인
##기상
##우로
##곡면
##워크
##요일에
##태가
##활성
국가인
개발하여
방송사
통합되었다
대체적으로
차가운
5명
AU
듀오
만인
문종
버드
북경
숙부
전장
전방
절벽
키르기
퍼텐셜
해에는
##두리
##탄이
##테스는
##생은
##삼진
##직이
제작하는
자유와
단체는
귀국한
장악한
아들이자
고시엔
무함마드
3세가
name
per
가던
가든
경시
국사
나탈
날이다
상품을
서태
세가
신석기
에다
주성
지석
키릴
푸젠
##기하
##나지
##군다
##후는
##bs
##렐라
사이에서는
여러번
사회가
아이티
설립을
않았는데
40여
예정인
당선되어
호소카와
비정규
싱어송라이터이다
이데올로
Way
공국
릴리
버린다
부부는
비둘
성문
여타
옆으로
요격
우월
패하고
피치
힘의
##rid
##두가
##해서는
##야와
##누아
##상황
##적이라고
##들고
##정에서
##yle
##저는
##탑을
일본군이
11세기
대표작
참여를
지정한
여성은
인물은
마르셀
겨울에는
분쟁이
아테네에서
KTX
##ext
장로교
두꺼운
##시킴으로써
두지
뜻에서
마나
매슈
박원
신안
연관이
윤년
이들에게
저주
정관
합의를
현을
후방
##라서
##배마
##체제를
##염을
##순은
##리아스
자신만의
2005년부터
오늘에
교통국
요시노
제5대
부모는
안드로메다
##다니며
거꾸로
그럴
당신
마닐라
상대를
이강
저그
종이다
추론
혜택을
##표준
##치면
##례에
##만인
##M의
##저를
운동과
##대학으로
임명했다
도입하여
조사한
시행된
대수적
벗어난
강풍
구금
나빠
났다
내재
번창
위원으로
총기
취할
##전력
##제일
##노조
##북면
방송에서
행정부
인정받았다
확인된
구분할
제시하였다
차트에
득점하였다
##유가행
제17대
비단털
AE
NX
Soci
구니
국철
기차
단거리
독서
둘레
리프트
배드
서자
원동
인사를
재차
재벌
총학생
캄파
황색
회장은
##회사를
##순의
##벤션
##좌를
이어주는
대학으로
230
추가적으로
레이디
거쳐서
유래는
명예를
##박쥐과에
브루클린
일치한다
프로듀서이다
아이디어를
##에너지
컴퍼니
팔작지붕
AA
Hot
강진
건널
교회에서
메틸
모신
무자
속하게
순식
엘레
제동
픽셀
필터
회사로
##차트
##제인
##브고로
경우이다
구성요
데이빗
발전과
승리하였다
천안시
2명이
4시
5가지
객원
기지를
마테
몹시
배향
보였고
사명을
소용
의용
잔존
저해
정해져
지탱
크기와
피셔
하려고
##니버스
##VA
##쥐는
##워스
##질량
##망은
##움의
##궤도
기원을
마지막에
결성한
이주하여
1984년에
1983년에
고향으로
처벌을
페르난도
이바라키
Che
거처
근래
김두
끝난다
배양
버린
비해서
사림
색의
스몰
신당
안철
지분을
칼슘
황폐
##정지
##조작
##투로
선거구에서
패키지
유식유가행
Dan
그랬
남송
복직
삶에
오미
옥수수
원고
일각
자행
청계
##강한
##보지
##ka
##그러
그러고
##arm
있었기에
시스템에서
전국동
조약의
등급을
Inter
브레멘
바닥에
초상화
주한미
쓰레기
토스카나
9일부터
Bu
갖춰
과시
그대
능력은
믿는다
스쿠
오자
채굴
파시즘
##공과
##속은
##모에
##블릿
사용자는
시대는
##ival
종목에서
전설의
집안에서
여의도
KS
계의
단국
떠날
안경
연행
오와
죽는
징수
팬들이
##다양
##2회
그녀와
데뷔골을
##ural
학생들에게
전국에
지속되었다
거절했다
사태를
증후군
히타치
Sal
감추
개수
겪게
라쿠
배의
분홍
비는
세번째
알카
의정
일주
자명
조병
키보드
##인수
##시외
##면체
##화하였다
##보자
##du
##cess
##퍼는
##vent
시리즈로
국내의
설명하기
시민의
소유의
집중되어
오클라호마
가드
곳이었다
곳이기도
공영
보름
실권을
쓰이지
여주
유우
임계
칠곡
##틀리
##등과
##보존
##37
##플러스
##질과
##코를
개인정보
1874년
거두어
성립된
겨울에
원칙적으로
임금이
구멍이
국토교통
4일부터
MM
par
광주시
대진
모던
세리
신자
온두
이희
인위
인테
파직
포천
피살
해준다
해트트릭
##녀가
##처분
##mus
유지하였다
제품은
거부하였다
시도했다
인터뷰를
키프로스
아틀레티코
그란
바비
세례를
습득
입장에
자리는
##ning
##O는
##질환
##8호로
##봉의
20일부터
##었다는
독립한
2007년부터
##운동가
개최한
개최하였다
아닌가
언어이다
계산할
완성되었다
자체에
더블린
미드필더이다
경량
김덕
높이기
단양
매리
법안
부풀
분파
실은
왕정
요시아
웨인
절감
제명
질소
쪽의
태화
털은
휴양
##사단의
##보았다
##테른
##호대
##현에서
1990년대에
세계적
평가받고
##urch
남서부
정차한다
자발적으로
안드레아
Road
6만
로타
리차
상에
서임
순례
정리에
주저
편을
확고
##tor
##미트리
##판에서는
260
1일을
대학교와
민주당의
결혼식을
사업은
구간에
선언하고
시민권
이사장
제거하고
신앙의
희망을
인터페이스를
##IVE
자택에서
아리스토텔레
Sum
공적을
구강
군벌
문명의
반성
빨강
신은
연대를
온라
의식이
정형
초음
##에스
##서울
##니카
##만으로는
##링의
##율의
2009년부터
따르지
선택한
##호선은
##iew
계승한
건강한
낙동강
UTC
남성이
누리
당나라의
데드
맹활
발산
복역
생길
솔루션
조의
채소
통역
페라
펠릭스
형제의
##해줄
##노트
##칸의
1960년대에
6월까지
주장으로
##olf
##olution
FC에
조건에
명의로
1878년
강력하게
파라과이
3단
90년대
TS
가졌고
낮고
바젤
부회
상정
캐치
탱크
팔꿈
헌납
##나드
##움에
##친왕
##슨을
생산하고
2013년에는
싱글은
없었다고
이곳의
통과한
유용한
구독
굴복
날려
떠나는
범위는
봉수
불에
심화
장시
준동
줄이고
##전에는
##원칙
##군인
##제도의
##타라
##현대
경우와
하였다고
중국이
대표이사
##ional
000명이
제공할
이적한
정신과
705
##선거관리
기초한
확실하지
베를린에서
심리적
정교한
제13대
신한은행
2점
24년
교수의
단군
단어의
먹이는
무로마
복종
사와
상가
소크라
순항
애드
자처
철학과
초회
코리
표출
형의
##전달
##배의
##처의
나오게
선정된
논란의
연대기
무너뜨
끝내기
메트로폴리
탄자니아
앨라배마
3번째로
가기
개미
과목
군마
논산
도르
물결
서지
수다
연대는
의회를
장자
지적이
차르
포츠
한겨
회원이
##och
##원자
##당시
##쉬는
##케의
기록하였고
주변을
##mm이고
1869년
거두고
나무로
이주한
국무총
컴파일러
Thomas
K3
글렌
깊게
노엘
대담
데일리
동백
리프
마켓
무단
시기가
시장은
신약성
오시
왕에게
요소로
유카
유정
치르
##서비
##라르
##기병
##기본
##크리
##파일
##설계
##맨의
배우는
집합이다
합류하였다
집행유예
후계자
What
디자인이
브란덴부르크
메소포타
인플레이션
자메이카
파푸아뉴
순식간에
NBC
갔다가
것들은
길러
동부의
명왕
미츠
발착
변모
부조
셰이
위원을
종말
통킹
패해
한계가
현실을
혈관
##라에서
##5호로
##창은
##광고
국가이다
역사학자
참여하지
마을로
소설은
법률을
##노동당
승진했다
분위기
세웠고
마이애미
부다페스트
9회
강성
물은
비리
사내
시중
아스카
양서
연달아
원소를
케르
##4호로
##센스
##비츠
##그림
##억원을
조직하여
발전했다
이야기의
50여
이동하여
영토가
프린스
공직선거
4학년
650
Du
과학자들은
농축
맑은
부추
성소수
신을
쓰게
임정
장관은
직사
패하여
하기로
향하여
후대에
##버섯
##비르
##직원
##학교는
아이오와
방송인
##시키면
설치했다
시스템으로
분류는
방향의
1875년
가르시아
기초가
재정적
분쟁을
일찍부터
알고리즘은
교향악
사도세
당사자
몸무게
Institute
3세기
MD
귀속
대도
대승을
등산
만장
색상
에볼
유망
정글
차원의
참의
초전도
커리
튼튼
휴게
##아카
##일스
##우회
##나에서
##투어
10세기
공격하였다
진행되어
우주선
결승에서
교수이다
1979년에
출입구
한반도의
신청을
발탁되어
어항구역
다항식
8일부터
구획
군중
꽃잎
단발
대량의
멋진
브루스
신학적
어웨이
얻었고
연락을
외국의
월남
의원으로
이도
있으니
지선
지날
직계
활주로
##야말로
##ij
##티야
##팀과
러시아에서
항공의
다이빙
사라져
파견된
북서부에
동원하여
유니폼을
앤서니
5km
Af
Wil
날로
달아나
드로
리베르
비지
빠르고
산으로
양식으로
오우
전조선
팬들은
호기
##군도
##참찬
##멕시코
##회의에
돌아오는
진출할
반대하여
지하에
지나친
강력히
생성되는
실행할
##상태에
히틀러의
부진으로
내세워
구멍을
시외버스
AF
End
겪는
러닝
불사
수단을
시원
엇갈
예약
재개발
총회에서
콜드
하의
후이
휘발
##연금
##협회의
##저의
##큰롤
프로테
배우고
방송되었던
지방과
프로그램에서
충청북도의
조건은
내려졌다
캐릭터의
##세포의
설정되어
##지원청
신성로마
무사히
Blue
무로마치
Hist
강으로
높이의
도산
동인도
러시
매치
먼지
반입
보행
산이다
살면서
아뢰
아디
와는
##급은
##rich
##1호로
##토키
##랑은
14일부터
2월에는
##리스가
##시간에
연주하는
드러냈다
8대
80년대
Pop
구슬
네브
다룰
당하였다
덴쇼
듯하다
렌더
사물
출혈
칸의
피처
##든가
##영상
아이의
일부러
같다고
##oul
이탈리아를
그것에
##거리에서
##ray
페르미
회사에서
##사회주의
##르타뉴
남서쪽
멀티미디어
탄핵을
극단적인
South
Elect
NL
공대
공장이
나간다
데에는
라디
못하였고
벤피
브르타뉴
색은
여럿
요인이
유머
재앙
재계약
케이트
편이
흐르
##즈마
##스틱
##구조를
##레네
##코치로
##손을
경우의
국가들의
나타냈다
계속하여
컴퓨터에
찾아서
활용한
1982년에
교체되었다
후손들이
출마하여
간행된
어디까지
단행본
미토콘드리아
Da
금동
데니스
실수로
주의를
죽임을
처리를
한데
##다니는
##공사가
##합의
##대대
##암이
##변수
1970년에
이것에
지구로부터
구역으로
802
전시되어
협력하여
절대적인
단백질의
##고속도로의
스타디움에서
황태자
여우주연상
폭넓은
22년
der
걸프
과다
도청
떼어
로키
마운
매진
명나라의
발포
비옥
선조의
수지
에인
우위를
일원이
읽어
줄일
쿠로
펼친
##사도
##비한
##베스트
시작을
행정동
출연한다
종교적인
북동쪽으로
플라톤
확률이
어디서
George
세르게이
3연
3명이
Mil
금전
급여
남자의
넘치는
눈물
별명
산청
삼은
성지
아레
정권에
조경
주제에
품은
행성은
헤겔
##동성
##해졌으며
##행의
##운은
##번대
##잉글랜드
지방산
발생하고
발매됐다
사무라이
처리하는
베르나르
촬영을
충돌이
영역은
탑재한
권한이
익스플로
CV
Kh
my
가사는
구에
길로
등단
디나
목욕
박경
법원은
설교
이심
주임
컨설
패스트
후원을
##문제를
##하기까지
##itz
출연을
##하자마자
만들어낸
사업으로
아내와
AKB48
페널티킥
힘썼다
Ever
거머
공시
기압
다수를
소아
원심
주창
질문을
출구는
호모
##IF
##커우
20세기에
사용했던
국가에서는
##ated
##부분이
##하려던
공개하였다
바로크
유사하게
달성하였다
오리엔
세르비아의
무게는
시상식에서
##플렉스
야쿠르트
5cm
Free
Pat
Rem
가창
가량의
거란
고난
권력의
묘역
변하지
성화
성수
스기
야전
인체
일산
장치는
전교
전제로
제르
직속
침체
타마
팔린
평상
##선사
1980
도시와
방송은
올림픽을
2008년부터
조직된
비교하면
멤버이다
개봉된
수준이
기후는
북부와
스카우트
테스트를
안장되었다
플랑크
Europe
규정한
림프
시할
아끼
잡을
천체의
컨텐츠
플러스
해군이
##관인
##했기에
##랑의
##투르
##골이
##빌리
##닌다
기록했으며
국가들
12월부터
중심지이다
러시아가
표현한다
인정했다
공간에서
조약은
결합한
슈퍼컵
지진이
생명체
##문학상
트레이닝
##텔레콤
어려서부터
스트리밍
2할
Alex
KA
PL
단속
머큐
발로
배척
병력은
불계승
빠지게
살기
설명을
알비
외할
이니
입어
잠입
책록
프루
학명은
형을
##등은
##청사
##프스키
##마리의
##제사
##제어
##브러
##코리아
##바를
##헌법
활동했던
많은데
제작되어
##위원장을
대중에게
안전하게
창설된
힌두교
샌디에이고
##바브웨
1단
군데
깨어
날씨
배터
법이
벤처
삶과
엔리케
여자의
완봉
주기로
직렬
짐바브웨
풍습
하겠다
##리쿠
##수송
##기만
##단체의
##호란
##타니아
##디아의
##매를
##번으로
##하였으므로
중국으로
아이즈
##itch
개발하는
##reet
성공한다
실시하였다
##이어야
근거를
펼쳐져
망원경
4승
DB
Div
Miss
격렬
들의
복무를
부천시
브렌
수만
신분으로
우상
원효
절친
점도
정리를
현미
황소
##화했다
##언이
##엔진
##S는
##승이
##atic
만들었으며
일부이다
구조적
개인적으로
주도이다
제목을
북동부에
머물러
학술적
신시내
하이브리드
단정
묶여
생몰
안정을
외삼
중개
진주시
체르
타오
형이상
##9호로
##레앙
##절도사
##에게만
되어서
우승으로
내용과
제공했다
명칭이다
승리하여
유로비전
자체적으로
증명하였다
공유하는
저지른
Project
거짓말
##슬라브
꼭짓점
크리에이
1과
거미
고후
납작
내력
단점이
동적
맡는다
생선
숲에서
열리고
오메가
와세다
유길
이선
이룰
취하는
침례
표트르
행위에
회원으로
##천과
##무의
##소리를
##yt
##으로서는
205
생산되는
음반이
태양이
서비스는
수행하였다
제안하였다
요청하였다
상징으로
이주했다
제시했다
스탈린은
이산화탄
유벤투
프톨레마이오스
North
Gold
가격을
고종의
그라운드
노론
말에는
민감
병기
분별
이륙
전자가
정변
제가
칭호
크기로
파열
히브
##아메리칸
##N의
##정동
##타수
##디지
##당하자
11일부터
정치의
##lement
진행한
전라북도의
2019년에
명령으로
출판사
언급하였다
스위치
개그맨
랴오닝
보헤미아
1세기
관성
대여
데르
세력으로
요양
항만
향신
##인터
##ks
##망원
이후인
이용하면
개발자
##운동은
##리오스
보통은
정책이
기관을
치료에
이외에는
회의에
남동부
탄생한
고정된
프리미어리그의
고고학
3위에
5개월
Mad
권유로
깨고
끝냈다
동창
백지
백신
변질
병렬
부교
스레
시체를
점진
주식을
창씨
촉발
캐롤
테리
학력
황산
##res
##제조
##노카미
##유와
세계로
##레이스
경기장은
##부분은
기술이다
제공한
대전에서
시민들이
추진하고
근거한
10년간
간단하게
am
격리
남자는
디비
마에
매스
미칠
법령
법은
변이
여부는
영락
차고
##보전
##보우
##렉스
##백의
##처가
##케는
##주의자들은
조선을
만들기도
대회로
관리한다
전문적인
유래한다
식민지를
불교를
가톨릭교회의
떨어진다
##산업의
국왕이
북서쪽으로
##로그램
신뢰를
연관된
사가미
총칭이다
관목
군인이다
동의를
바쿠
백자
병에
신천
와타나베
우물
잉여
주동
줄곧
지을
집단의
파업
판의
##동물의
##43
##외국어
##버가
##재와
##연화
##타리
##걸이
시간대에
드라마로
드라마는
그림자
##기술을
보수적인
떠나게
This
블루윙
반발을
이시카와
약칭은
Soul
3가
8세
Il
Jack
sub
고온
로큰롤
매표
미르
분단
산남
스맥
시인이다
운임
운명
제헌
죽이는
코퍼레이션
향했다
효력을
##내면
##불계승
##창조
##반으로
##ars
연구로
교육이
##들에게도
형태와
생각은
자연과
사업의
태양계
2003년부터
언어와
설명하였다
분포하는
넘어갔다
연관되어
돌려보
한국방송공사
1남
Mat
Tim
Top
ret
남해군
메시에
밑으로
서면
셔틀
아쓰
양력
유포
재보
정문
주일
짧게
##리기도
##라시
##상공
##남에
##너드
##발트
##집권
12월까지
교육부
##대학에서
연합군이
레이더
2003년에는
텔레비
애니메이션의
32강
바뀌는
사진이
비율로
800m
말레이시아의
대량으로
##attle
시마즈
이노우에
ind
강에서
고찰
괜찮
근원
머리는
명단의
버터
손녀
식의
왕조는
요원
용해
음주
장래
정계에
조준
지켰다
혜성
홍익
획기
##적한
##cus
##설과
##좌의
이상인
문제점
사망할
28일까지
그것이다
TV에서
정당한
주도이며
성질이
한번도
아들이며
편찬한
라이온즈
헤라클레
##도마뱀붙이
농어촌
6차
각주
같았다
검열
늘려
단계의
많지만
모닝
무르
슈고
없어진
이조
이형
질서
찾지
타인의
투하
행위가
흔적
##버린다
##TR
##간으로
##ME
##AE
##RNA
##출장
13일부터
##ita
생산되었다
통합되어
##irt
있어서도
급제자
분위기가
##공립보통학교
각료
곡물
날은
뉴올
백운
범위가
사할린
속편
양보
이석
조현
초까지
치렀고
편으로
확장을
##국도
##격투
##처는
##혔고
국가들이
경기인
서울을
국제선
선거가
승강장의
Ste
통합을
사고의
삼성전자
밝혀져
근대적
물러난
정류장
앤더슨
3주
Bel
God
글이
단체를
리믹스
벌이고
베어스
벨트
불타
연중
열정
##rol
##해로
##7호로
##들만
##태는
1984
한국영화
가지를
이상적인
지원했다
경찰서
2001년부터
정당은
이주하였다
##단체인
입학했다
고등학생
등급은
미군정
모터사이클
쓰러뜨
준우승에
저렴한
GPS
SG
YG
강우
되게
백업
석권
실효
씨를
아말
얼룩
온도를
유계
이그
전리
제창
크기에
##사적
##가며
##다와
##다테
##구니
##도라
##정부를
##것이다
지방으로
수도는
졸업생
건물에
올라가는
공화국을
불가피
결성하여
생성된다
체계가
붉은색
청나라에
주어졌을
일으키고
신화에서
마그네
키르기스
끊어
다국적
미합
버펄
비준
사귀
삼위
소작
자켓
조동
주전으로
코린
패망
평했다
##학으로
##1회
##티와
사회적으로
문화예술
정의하고
전라남도의
작곡하였다
담당한
결승에
전해져
수준에
바다로
타이완의
앤드류
##irect
정체성을
쿠르드
Ger
HS
강렬한
멘델
버진
상자
실증
애프
왕궁
익숙
죽었고
체제는
표기는
해주는
##아미
##지로서
##신앙
##히사
##틴은
1986
16일부터
문제점을
컴퓨터가
구역상으로는
식민지의
대표팀의
Island
3세대
FS
Play
공주시
궁수
대를
살며
양은
응급
자사
잔여
장대
정체를
투신
파블로
함대는
호리
##로스는
##수염
##구미
##적이라는
##족으로
##어류
##브와
##값은
##녀의
##0년까지
사람들도
참가를
시스템이다
위험에
플레이오프에
피아노를
발족하였으며
교단
기가
도박
돈이
며느
무네
양상을
영어의
정예
조정은
직업을
충성을
친한
##도서로
##보라
##합성
##플리
##방지
##we
##바와
##PM
##때는
##틱스
공개한
도쿄의
성장한
스테인
해안을
가입하였다
대항해
무늬가
미나모토노
1명이
rec
끼친
나바
도읍
반대를
사하
시미즈
여부에
오만
윈난
인식을
함수이다
##실장
##급으로
##혁신
##필을
##링이
11개의
##스트림
6월부터
제작하고
##oman
등장하지
운동으로
유명해졌다
생활의
##ada
##ady
시민들의
708
베르나
1972년에
얼굴에
모스크바에서
부임한
의거하여
오바마
기자회견
스맥다운
1m
550
Back
KO
Port
겐지
고치
돗토리
뚜껑
봉인
부주
숫자가
신기록을
영사
오르게
위주의
유체
장병
재료를
조나
족의
철학의
##임금
##다스
##98
##기보다는
##조사에서
##UI
##예비치
##광의
##빈이
##폭력
##펠트
사용되었으며
역할이
항공기를
부산에서
프리킥
제3회
##uman
스테판
삼국유사
1974년에
나뉘었다
League
레지스터
##선수권대회
FR
With
nt
개구리
드레이
땅이
받던
버스가
번호를
불로
사교
쓰나
알기
앞에는
육지
입자가
저질
전봉
조조는
중용
진리
학회
##니크
##는지에
##츠카
##값이
##섬은
##층에서
아이들이
감독직을
교육은
주민등록
패배했다
해결할
신체적
Franc
프로모션
Cla
Light
강이다
내몽골
도부
랭크
미군이
반격을
번이나
복식
사본
삼는
소를
시점에
아그
안겨
억울
유생
의사가
첩보
침범
후자의
##수에서
##레르
##중이던
##피아의
##활동에
##클래
##농민
5월부터
영국을
영향은
##대학교는
돌아갈
교황청
강조하였다
개정으로
다니며
##축구연맹
개시했다
혼란에
##조판서를
자이언츠의
달아났다
강서구
히브리어
Si
She
거시
대상의
뒤덮
박사가
붙이는
설화
센서
야코
전면에
조조가
진상
##아에
##port
##요를
##요가
##받기
시작되는
영화와
활동하면서
##ese
결정하고
계속했다
남아시아
파견되었다
참석하였다
연예인
향토유적
수컷은
메디치
플러그
기슭에
Sil
가닥
감동
고도의
광대한
금정
땅에서
만화를
매립
분사
사나
왕인
지에
창덕
추이
##가락을
##sy
##청소년
##례가
##만화
##교류
##테일
##책이
12일부터
프랑코
인구를
변화하는
확대되었다
남동쪽으로
전설에
박물관이다
라이프치히
휴대폰
프랜차이즈
6명의
Carl
Sing
경보
교부
능가
명목으로
미만의
밀러
변하는
브리지
생도
생물의
성경의
수증
신임을
싸울
오웬
인자
일가
정거
친환경
파파
현장에
히노
##아로
##소인
##lus
##절도
##냐고
17세
##ility
부산광역시의
야구를
기관으로
소설가이다
산업이
일반적으로는
사상이
결합된
교회와
그렇기
핵심적인
예수회
##계획을
Beat
위키백
스케줄
브로드웨이
허드슨
만드는데
Ben
고집
기를
꼬마
놓아
무기로
바라는
백혈
불의
소라
유지를
이랜드
절충
징집
철도를
통폐합
핵탄
##천문
##지검
##66
##대회는
##aj
##광은
사회민주
##aceae
상황이었다
데이터의
세포가
발달하였다
오브젝
조성되어
부임하였다
우루과
COM
IF
김도
날을
대하
덕에
둘의
명제
믿을
믿음
바보
배리
수식
앨버트
정정
주며
쿠웨이트
펌프
##무관
##채의
##노마
##zy
프로방
##oun
부분이다
등장하여
운영한다
라이너
여성과
100명
##ental
모양은
공화국은
내려와
이야기이다
에스컬
신설된
가로질러
화재가
보냈고
푸에르토리코
구부
다치
데는
레몬
비토
신곡
악성
요소는
임기는
전학
점으로
제프리
카와
풀이
필하
##실점
##장비
##정이다
##남면
##레와
##UR
##절은
이용이
##omb
차지하게
270
판매하고
##기관을
장착한
주최하는
루마니아의
비잔틴
콘텐츠를
##보병사단
방글라데시
뉴올리언
1주일
VS
가니
가졌으며
군함
넬슨
들지
버클리
법적으로
센타우
시켰다
에그
영의정
왕래
접두
제도와
종업
줄이는
추세
해킹
후베이
##키에
##민속
##진한
##술은
##딘의
개발도상
2010년부터
등장하고
정책으로
내려오는
요청으로
시험에
나무의
번역한
고전적
프로젝트에
완공되었다
나미비아
게일
나쁘
낮추
뉴멕시코
순종
오차
읽기
키에
파리로
폼페이
##마력
##요는
##티지
##히라
##bit
대한민국이
##atus
등장하며
가수이자
언급된
방문했다
##바이러
만나고
일어나기
1973년에
건강이
고전적인
목적에
##mann
8강에
쇼핑몰
##프라이즈
서포터
DOS
가우
걸고
교리를
리즈
릴레이
매도
미수
샤오
수군
않음
엠블
정령
주제는
줄을
중거리
처한
천장
후자는
##개와
##수이
##파티
##피탈
##닷컴
여러해
우승과
다이노
여기고
사상과
작곡가이다
설명한
연기자
바탕을
노력했다
1963년에
화성시
Max
가설을
갑오
걸린다
것만
등지
복수를
산과
안젤
원자가
음의
있은
직경
태생
##xy
##뉴얼
##농구
##iness
하나에
사회과학
중심핵
제28
경제에
제공하기
공연이
작곡을
결성되었다
체포된
등록된
아내인
마이크로프로세
000년
명나라에
휴대용
간접적으로
아비달마
명백한
실리콘
군과
근위
넘버
네바다
벵골
붕어
서리
유능한
은폐
일삼
중공업
초의
함자
##원사
##탄올
##드루
##효율
##참여
19세
있었으므로
##이트를
경제적인
##대학교에
결정할
##ida
밴드가
주인공인
살해한
재직했다
초반에는
남서쪽으로
발탁되었다
그만두고
격하
균일
기금
내주
띠며
볼록
비싸
사치
쓰일
알리고
앤디
유틸
전자를
튀어나
할인
히스
##로쿠
##g이다
##행사
##계수
##달이
##파운드
##최고
19일부터
사람인
가능성은
기능에
대중음악
설계한
1877년
##회사인
영역의
##공업고등학교
##시설이
화재로
심사위원
어려움이
3에
4인
HP
co
금천
나르
넓혀
대입
시멘트
오트
원본
원소가
장단
전단
절도
총사령
캄페
테헤
형이
확충
##임에
##시트
##무르
##배로
##GO
대표되는
제작자
방송에
로마로
##ste
적용할
##umb
1879년
런던에
인수하여
포인트를
충렬왕
Richard
CL
Jon
강하고
남을
단결
되풀이
둘다
드레스
물체를
배반
스이
아킬
약사
염두에
유선
접합
정일
조수
코끼리
특성이
환자가
흥덕
##아노
##대구
##대군의
##44
##증후
위치에서
당시는
발표하면서
참여해
1일까지
부모가
##ATA
MPEG
경전철
사쓰마
5위를
동물을
듣는
모라
목에
번씩
부왕
상세한
용맹
작위는
종파
주화
청취
##51
##림에
##먼이
17일부터
이탈리아어
만들어지는
기능과
비슷하지만
이끌었고
대다수
기자회견을
카디널
2세기
4호
Just
Pi
교량
다쿠
대사가
맞배
보류
부인이
북벌
셈이다
외환
정박
제철
종식
카다
타일러
파시스트
행사에
##수스
##으러
##숙이
20세
활동하였으며
감독인
관계자는
생산한다
26일까지
정도이며
판매량을
데이터가
예술적
추진하였다
삼성전
오사카시
제기했다
부터는
남서부에
ICBM
셀주크
Bra
CIA
Lu
경선
눈치
당수
마우스
미생물
복수의
송환
쌍성
위상을
일과
측에서는
##포도
##ya
##불좌상
##필레이션
##유전
대학이다
21일까지
돌아왔
싱글을
##중학교는
사무총
단체로
재판에
사령부
측정할
아침에
취득했다
##노동자
대승불교의
제20대
아세틸
유러피언컵
아랍에미리트
알폰소
6천
DL
und
강변
김장
담보
사비
속했다
승낙
실체
입지를
잭슨은
케인
판명
힐베르트
##고양이
##승은
11월부터
자유민주당
참가한다
280
##하자고
##시간을
사상에
명령어
오늘날까지
세포는
공항이
임시로
도착하여
위치해있다
문헌에
힘들다
송시열
무승부를
그레고리오
불분명
Aut
가락
나름
내에는
도치기
동두
미첼
서클
서아프리카
심상
심어
쓰이며
일기로
출자
한복
##품과
##집에서
##킨슨
##먹는
열린우리
40분
이때의
2000년부터
적용하여
재판에서
촬영한
동작을
테크놀
용산구
SO
곡들은
극적인
납부
배분
부부의
불려
산은
스펜
시도가
이만
인원은
임베
중생
크며
파주시
하원의원
흡사
##등기
##규는
##평면
##향의
##블릭
##링크
##됐지만
10세
독일군이
개발과
출시했다
추정되고
실패를
선언한
시민권을
복귀를
바뀌게
패러다
트라야
##earch
일리노이주
평평한
바꿨다
네브래스카
국의
농산
다리는
단어로
마디
말하기를
맞물
보루시아
북중
썼으며
아들과
양천
올레
인프라
전력이
집단이
총리의
치렀
함은
확진
##언은
##38
##네를
##디스크
##바드
##그의
연구한
대학이
21일부터
아래에는
브라더
연합하여
환경이
비행을
인터넷을
초대칭
1981년에
1839년
1975년에
구체적
승진하였다
현상이다
미카엘
평균자책점
하이드록
유벤투스
2남
같아
개로
곤살
국부
날인
동호
둘을
마포구
무색
바쳐
방공
별명은
북반
산책
스쿼
이우
장점
중견
추운
카슈
컴필레이션
하리
학명
학파
합하여
##다코타
##eb
##스프
##토바
##패스
##팀이다
##돈의
다시는
게임과
가능하고
23일부터
건설이
이듬해에
출생하였다
즉위하였다
제거하는
제6대
전사했다
비용은
발발하자
분노를
의도적으로
##드라마이다
일렉트로닉
Em
개선을
고의
고쳤다
구내
꼬리는
바디
보정
복위
복싱
봉황
스베
쌍의
아드
왔으나
적당
체제에
초에는
##부아르
##인물
##실업
##포럼
##스텐
##루트
##por
##종에
##프에서
##L의
대표적이다
기술에
##adem
부르봉
지배하고
불리던
왕국과
채택하고
수입을
오리건
전설이
대표팀에
디렉터
3는
BB
ag
노력이
둥지를
땅의
묻혔다
보트
뷰티
속초
신지
아연
이단
인생을
입당
중랑
진단을
토로
토리
통제를
폴라
##원장
##선인
##자격
##탄에
##테랑
##균은
18일부터
1970
국가적
사망한다
유럽연합
운영되는
필요성이
비교할
관측된다
아르헨티
로스앤젤레스에서
대대적으로
저널리스트
깨닫고
세종특별자치시
호찌민
0의
KC
Lo
Roy
가스가
광시
기밀
기온이
다수가
로만
매듭
무리가
본관으로
불복
불릴
색소
소가
스톰
아지
외손
장관으로
카니
탄약
한산
형벌
##술이
아이스크
이루게
러시아에
생각하였다
2002년부터
월드컵의
##osa
거두지
바람을
거래를
미스터리
Vf
끔찍
대군을
부피
블레이
비핵
신들의
알마
운명을
인제
자궁
쳐서
취해
##신저
##설의
##경부터
##스트가
활동했고
유럽에서는
##ama
활약하며
##스코리아
개념의
2세를
그림이
##cm이고
특정도서로
출생하여
범죄를
출마를
지내다가
순위에서
침략을
대단한
페르디난트
2번의
4세의
man
관리가
날개를
대정
모자이
박씨
방한
배워
브리스
생리학
신분을
안방
여자를
연호를
올렸고
유서
이등
재가
직원이
직무를
집의
캠벨
팬들에게
포스포
##냈으며
15일까지
정치국
##리그에
##km이다
##els
##eter
연합국
출시하였다
구분한다
배경이
노르만
내각이
금지하는
얼굴은
총독부
펼쳐진
자랑하는
8회
가가
경원
곧이어
꼬리를
로컬
문자의
상사
세력에
안팎
연화
울주군
카터
##부대를
##적에
##레븐
##림으로
##중공업
##건에
##능력이
정의하는
상대방의
반대했다
실시한다
대상에
불리한
조각을
내각에서
센터백
보도되었다
공부하였다
플레이오프에서
Company
고성능
##ittle
관해서
김주
남반
내구
눈의
도도
마차
맡겨
먹기도
박찬
본초
부문을
불경
시찰
안톤
어미
입후보
조언을
지그
청사
촛불
친왕
클릭
판소리
포화
푸스
현은
횡령
##부전
##해지면서
##wn
##바람
포함되는
도시이며
2월부터
존재한다는
000m
제공된다
노동자의
이적을
해결을
파견되어
인종차별
안동시
Grand
라그랑
##공무원으로
Cat
KD
Nat
trans
글씨
나리타
되살
두터
목동
셀틱
실어
안산시
에일
자릿
정세
출품
탈당
태도
파리에
해리스
헌터
##계사
##더와
##막의
##됐으나
12세
대회인
2010년까지
태어날
2011년부터
표현하였다
판매가
Stand
사무실
친구들과
유니버스
발행된
노력하였다
제7회
주어지는
복음주의
몸길이가
모티브로
서스펜
2승
du
거문
균등
내게
민물
반도에
배로
식이
없음
에치고
의인
의의
이윽
자갈
지브
폐교
##rit
##선택
##치카
##내각
##샤의
##arg
발견되고
공격적인
표현된다
공연은
법률에
##은행의
1971년에
참석했다
시상식
개찰구
캠페인
에스페란토
아칸소
2m
8번째
고을
규명
라벨
미군은
별명으로
숙박
암모
예산을
카미
키를
하류
회유
##B는
##기반
##했으므로
##산염
##호에서
##목과
##작업
##받았으나
##났지만
개발은
경제가
조직으로
대학교로
보고를
보고했다
아르눌
마을은
포르노
이해하기
홈런과
대립이
지식인
끝나면
일방적으로
NASA
메트로폴리탄
1점
6회
PP
궁내
됐고
몰타
비에
사생
승부를
식사를
에든
영미
오사
처칠
천명
편성이
행성을
헌종
##학습
##99
##보며
##버스를
##것은
##팅을
##시키려는
데이브
29일까지
지배하에
국립중앙
##ander
발행한
최소한의
하늘에
감염된
방정식의
스탠리
주최한
화합물
트윈스
헬레니즘
9시에
Na
가역
고개
남겼
뉴잉글랜드
리포
몰고
몰랐
몰도바
무비
문자가
변속
불만
사하라
사바나
선우
실수를
오슬로
올릴
운하
저수
통솔
표창
후추
##관이다
##립의
##카드를
##청으로
##도호
##대항
##자마자
##만원
##교수로
##측이
##레스는
##록대부
##뮤직
1978년에
사회민주당
작품들은
2014년에는
개최하고
브라더스
비판하고
2022년
모양인
관할하고
복귀하여
##ther
MBC에서
충돌을
무렵부터
보여주며
전설적인
폭탄을
제15대
여수시
스폰서
디비시온
CA
Class
Die
금액
김시
못했으며
심근
없도록
완수
일하였다
입구에
조문
칼레
##학위
##츠부르크
##란한
##금속
##반대
사회는
발매되었으며
자연스러운
320
##unk
1858년
1859년
중반부터
1949년에
하드웨
##체육대회
체코의
747
몬테네그로
Records
부르주아
이윽고
개개
구가
국화
나나
내릴
눌러
로우
르완
모건
미요시
박중
번은
복속
수년
오가는
옥타
인치
자민당
제도로
죽는다
코덱
콜럼
클럭
퍼스
편이며
##부도
##시계
##지수
##공정
##상수
##길은
##민정
##품에
사실상의
드라마의
않는다면
지구로
제35
변경을
방향이
주인공은
에드워
입학하였다
대립을
삼각형의
전공을
자살을
주둔하고
득표율을
알고리즘을
##EEE
리바운드
경복궁
볼티모어
가뭄
개표
권리가
내전이
돌이
바쳤다
비를
사대
상설
서예
순창
실사
아메
없어졌다
영상이
와이드
자비
전선에서
티아
포뮬
표면의
홋카이
##라며
##체계를
##나비
##모습
선수인
자신들을
영화상
만들게
연구하고
구성한다
발견할
256
##ely
보고되었다
전국에서
##ipp
1969년에
무엇보다
신성한
논문에서
마르크스주의
어둠의
##륜구동
7회
Hy
경매
곡인
궤도에
녹음을
도구로
보너스
부자
사각형
세컨
아편
양념
여주인
오게
재결합
좋고
##과와
##머가
##팀에서
##거리에
25일부터
대통령에게
##ird
부여하는
그대로의
자동차의
출생한
다르며
좋아한다
보수주의
마리아의
레코드에
##ally
사임하였다
되돌려
복음서
거제시
형사소송법의
4집
8개월
구두
다닐
드미트리
멀어
무제
미켈
사커
소프
양수
위나라
폭포
퓨처
필두로
호날
화염
##는지를
##게도
##역인
##별한
##중량
##균의
##베를
##층과
##때까지
연구소의
있어도
시리즈가
필요할
여기서는
교통사
교황은
드러내
##apan
방정식은
배출하였다
누구도
우에노
영광을
유니버시아
메르세
시그마
##스러워
바뀐다
다비드
손해배상
4는
EN
뇌물을
당하여
따돌
루도비
무겁
바스크
생계를
성실
세일러
소식
수비를
쉽고
싣고
야마다
에픽
임기를
장준
재구성
지위가
트램
휘하
##oft
##보상
##신보
##타점
##유물
##알데
민주당은
상황이다
요구한다
500여
나무가
등록되어
구별된다
바깥쪽
First
NA
Que
if
달린다
레스
로이드
사보이
샀다
송진
안재
않으면서
에뮬
워커
인생의
있음에도
제나라
조연
조정을
책에
치우
코로
쿠빌
피니
하강
화상
##로에서
##동면
##틀을
##채와
##외교
##MHz
##바도르
##처벌
세계는
경기장을
수도가
참가하지
27일까지
2015년에는
플레이를
반대하고
불가리아의
복귀한
초등학교다
준비가
달성한
체계적인
고종은
선생이
아파치
임무는
나왔고
보편적인
성직자
증권거래
Type
고층
공상
극중
김우
독살
디스코
따랐다
떠돌
바트
반항
밝고
벽을
산재
쓰이기도
엄정
여는
여왕의
예종
용기
의장을
잃어
차장
착각
창고
피지
##리츠
##르에
##충의
##업자
##쳐서
##골은
선수와
8월부터
역할도
지휘자
##ript
강원도의
고속버스
아내를
브랜드로
투입되었다
병사들이
높아졌다
그레이엄
위반으로
불안정한
자리잡았다
플루토
일렉트릭
갑작스럽게
컴파일
만장일
에든버러
IEEE
ME
공기를
구원을
누렸다
물자
백화점
변증
별개로
부리
분자의
신학을
양양
완산
위패를
이질
재편성
핵융합
히말라
##루이
##프레이
##왕복
##비어
##집이다
##희와
##짐을
209
##스트를
아이들의
지원하였다
과정이다
초기부터
유지되었다
기업으로
##교육청
연기한
내부에는
종목에
머물렀
선보인
##재판소
제14대
갈릴레이
Christian
고인돌
system
지극히
부파불교의
유틸리티
Law
Power
과제
구루
도구를
박용
박테리아
생모
세무
스즈
싸웠
에리
의논
지팡
진전
총통
출국
풀백
환산
##게르
##행으로
##형사
##onic
##ince
사람이었다
들어서는
설치하는
결정이
필요에
군사정
수행하기
물질은
남편과
베이징에서
연산자
두드러진
서재필
미성년
705인
3번의
간사
김은
뇌물
도장
레나
민영화
본존
세토
시트르
어지
예편
외무부
조석
질투
토성
폭주
##시미
##다발
##기스
##신정
##한데
##민들은
##덕여
##김씨
##룡의
##ano
사회적인
제공하였다
어머니인
제4차
서식하고
폐지되고
천문단위
집중적으로
프로이센의
##종합운동장
요미우
오디션을
모나코
가볍게
TOP
bl
각성
계양
기온
낡은
남궁
녹화
당신의
문장을
밀가루
세울
세력과
시대로
예로부터
유승
장신
주소를
호스
##할수
##ca
##ford
##빨리
리그는
표현하고
학생의
서비스의
위원장을
프레드
제6회
확실하게
자극을
일행은
국가보안법
어우러
부에노스아이
1편
DA
국회에
늙은
덧셈
마티
미완
수열
싸운
악화되어
원유
증발
타쿠
트레일
학창
##자동
##명령
##적일
##CO
##플라이
##질서
##탈을
##0년에는
##리아와
사회학
만들어졌으며
찾아와
유전적
패배하여
달러로
이뤄졌다
저술한
탄압을
제16대
선제후
4세는
갇혀
광대
담양
덮개
도자기
메일
면모를
슈타
암스트
업로드
오호
옮겼
장소가
장치의
적법
##로트
##곡과
부분과
역할에
이루어질
판매량
크리스티나
인터넷에
다르지만
연맹의
추천으로
조선시대에는
대결을
급격하게
2경기
5억
Po
골로
높였다
능력과
동거
딱딱
루크
미겔
비하
비하면
사에
속을
승정원
채색
한문
휘는
##나들
##토에
##교인
##오면서
##네임
##네프
##찬성
방법과
소련과
고등학교에
남부에서
##over
##obal
1812년
소장하고
파라과
추증되었다
발원하여
자카르타
Society
생몰년
Di
꽃을
대머리
듀엣
물가
빨라
산마
생김
시발
시도는
양극
오우치
왔고
절약
타도
테일
##누스가
##3의
##조사에
##바키아의
##뿐이다
##련을
1976년에
17개
1968년에
방송의
도입을
수행을
Str
왕국에
영토는
제5회
표시한다
센터에서
종목으로
체계적으로
근무하였다
병사들은
국제공항이
시상식이다
석방되었다
##이즈미
붙잡혀
선제골을
이마가와
서귀포시
27년
6명
Bas
Ca
것들
공국의
구약성
등각
로시
메콩
모란
박은
보리스
서구의
속성
육식
자르
죽일
천하
티에
포에
학자들이
##립을
##S의
##잡지
##펠러
아이디어
기준이다
공격형
이것들은
지원하지
고려에
결정된
돌아간
후보자
베이시스트
이해하고
주도권을
즉위하자
양자역
파악할
튀니지
알프레드
Science
상파울루
리차드
5집
Ju
Long
SQL
Tor
골격
군으로
노르트
누에
느리게
리모델
마니
목사가
무루
변한다
신숙
작위
지킬
치유
캐슬
##밭쥐
##라비
##68
##왕릉
##쳤지만
##회의의
대학과
##스타운
이론이다
증가한다
집합은
1차전에서
인식하고
정착한
출간된
8강전
플로리다주
지칭한다
멜로디
제18대
풀려났다
이케다
그도
기마
기도를
덕수
비야
소사
숙명
영리
왔던
장점을
정여
진실을
집은
킹스
혈통
##전철
##ues
##보레
##ira
##노이
##너와
##밖에도
이후로도
기록한다
기준은
25일까지
교육과정
50m
보내졌다
제품이
##도시로
지식과
이민을
세웠으며
이즈미
남양주시
브레이크
무죄를
산스크리트어
나인
눈은
단위는
단위의
도약
바늘
밤의
버밍
보이기도
불만이
성인이
성분이
손수
아약
인식이
잎이
재해
전과
전범
행해
##6호로
##루크
##기시
##버리고
##T는
##히며
##네트워
##각에
20일까지
대표이
30일부터
##reat
시스템과
2002년에는
##urus
2차전에서
확인했다
형식이
부족을
사무엘
해결하는
영역이
장애를
업무는
##스럽고
도쿠시마
격파하고
모노이드
클러스터
32년
ED
Hel
감소로
변한
브롱
블랑
선대
쌍용
알베르
없었으나
정리는
차차
커넥
휴가
힘에
##사슴
##송이
##습니까
##호프
##링거
##득점을
방송하는
참여했으며
소속기관이다
##amil
나라로
기타큐슈
사업가
비롯되었다
통합된
메이커
제40
영토의
직후인
상업적으로
보이는데
Sport
시나노
비틀즈
Jul
가시마
당연
두뇌
문의
신문에
실록
엔트
열거
원자의
원주시
##부작
##of
##루즈
##YP
##오세
##렌은
##락에
1960년에
설치할
27일부터
상대성
분야는
배경을
남부와
바다에서
마쓰모토
조정에서
페이퍼
출범한
파생된
게오르기
돌연변
코트디부아르
not
가면서
과선
넘지
니키
단조
박태
버섯
범람
설리
어둡
였던
영도
적자
전류
종친
집단을
퇴위
팔을
##즈미
##트맨
##시장에서
##화도
##주도
##여지
##있는데
##둘러
시즌에서는
연구소에서
제작하여
##ury
승강장에
기관은
1999년부터
영토에
등록되었다
5년간
성우로
양성자
다스리는
살인사건
화장품
착공하여
쇼트트랙
1급
3m
공병
국세
귀순
레스터
마태
문하시
빚을
악기를
얕은
요리를
워낙
자랐
첫날
폐차
하스
##사우스
##하느냐
##수호
##력발전
1985
1600
##alk
진행할
중앙일보
이것으로
생각에
로마자
##리오는
베이커
스트라
부여군
##지방의
자동차를
히로부
만족하는
마드리드의
완료되었다
페르시아의
아미노산
디자인의
세비야
인테르나치오날레
캄파니아
7만
7명의
겨냥
격침
고로
곡들을
대방
반동
반달
벽에
병풍
부제
브람
소피
수와
아츠
앞뒤
엉덩
우의
이들과
절을
증오
지청
질서를
포섭
하얼
##인지는
##니컬
##가이
##희를
사람들에
운동가
여성들이
발전한
관리되고
과학과
종교를
동물이다
도로의
표시하는
성격으로
보컬리스트
브루크
매킨토시
3기
York
b는
기리는
마거
명성이
북대서양
브릿
위법
이철
있기에
저스틴
주름
총격
편향
폭은
혁명으로
##일이다
##무용
##55
##녀로
##RC
##헌은
있는가
18개
주장하여
선거이다
계속되고
28일부터
국민이
사랑은
지지하였다
제4회
사례는
나타내기
CoA
느낌이
언더그라운드
어디까지나
임베디드
Fla
IUC
do
가령
걸렸다
과이다
기독
높이고
등에도
묻는
빅뱅
빈민
소아시아
신체의
적힌
찾았다
청일
카리
환관
##지다
##지이며
##성공
##조류
##새를
##ware
##예수교
##뛰기
##봉이
##라이브
중심지가
요구하고
2000년에는
피해는
언급이
330
내각은
변형된
민중의
몰아내고
고가역이다
재발매
라쿠텐
같지만
미미
미친다
배는
버클
병과
부실
불상이다
서위
순서를
슈테
식용
쌓고
위배
작가는
집단으로
체계의
컵위
평년
호가
##임과
##기금
##우스를
##상대
##분투
##으리
##오린
##방식을
##센티미터
##IE
##불의
##탑은
발표한다
태어났고
데뷔했으며
이동을
유일하다
올라갈
예정되어
얼굴이
어깨를
마법사
생기게
이글스
이리하여
J2리그의
경순
규합
길은
동산
리사
맞닿
보어
부인의
서류
순천시
신군
양궁
조제
지대에
하세
##학술
##정비
##저널
##짓는
처음엔
유럽을
지원하며
방법의
바이마르
제국주의
뉴욕에
환경의
##나무가
남편을
증명할
개편으로
기사단
Arch
국민의당
리스본
센타우루스
5천만
East
Jr
계량
관점을
뉴클레오
동향
말단
묘비
문학과
반기를
백화
블러
순찰
식물을
열람
전선을
존슨은
지점을
추후
탈북
##보컬
##나무를
##마뉴
##테가
##태의
##근과
9월까지
연결을
지배권을
사고는
분야로
확인하고
구분이
##ister
작용한다
테이프
히트곡
사범대학
파스칼
무지개
70년대
8만
Ha
갤러리
규장
김치
남기
내에서도
니케
대주
대본
루프
마틸
매복
머리와
반감을
백조
부코
부담을
분명한
스콜
아이다
없는데
왕릉
이아
인삼
중고
컬렉션
태블릿
화면을
##라크
##가슴
##tr
##ta
##기동
##중계
##덕을
모두에게
##led
선거에서는
생산한
조직과
기업은
나타나며
총선부터
건국훈장
Young
제9대
유치원
매사추세츠주
모서리
단단한
델라웨어
창씨개
GL
TBC
el
게놈
겸직
극소
눈으로
단사
달콤
대문
대제
마늘
모잠
목이
보면서
부진을
송광
안후이
오피
오닐
외척
재회
착취
카드의
캡틴
표절
형편
히트를
##로키
##부정
##제도가
##노세키
##플래
##호아
##새가
##더릭
##운송
##bo
시작했는데
생각하지
출연하며
모습과
싱글인
과거를
그림의
주민이
유전자를
소개되었다
알아차
장착된
성향이
받아들이는
철저하게
부처의
시마네
백악기
General
막시밀
IUCN
1에서
2일까지
SW
Sound
고기를
군림
기구를
당신이
동이다
랜덤
루즈
반민
변성
숙련
앙상
의심을
지식의
템플
페드로
하원의
항생
혼잡
##부대의
##트레이
##도움을
##47
##노선
##생성
##평의회
##탐정
##학교로
시작하게
한국어로
조선이
1950년에
##위원에
생활하는
인정받고
Street
##전쟁이
증거로
하늘에서
나뉘며
Ann
맞이하였다
##조차도
영혼을
어드밴
브레이브
닛폰햄
느꼈다
미래통합당
암스트롱
Nt
OK
강북
걸었다
다채
디바
법원의
세대의
않거나
외면
윤곽
중건
지의
추밀
칸이
페인
##포항
##심판
독일계
리그컵
관계의
2012년부터
시대와
평가하였다
이미지가
개최하는
추가하여
종류이다
행동으로
처리할
유대교
국회의원이다
규정되어
아내의
에어버스
천도교
##formation
화강암
클라이언트
한가운데
up
건전한
다윗
독성
시키는
시니어
오류를
외관
집이
친위대
프록
화약
히바
##수면
##장성
##종공신
##암리
##렌의
##백은
감독이었던
음악으로
24일부터
26일부터
##ider
올라와
북한에
오늘날에도
소유권을
발달하여
##지방경찰
전사한
전사하였다
나폴레옹의
부친은
해협을
한양대학교
가늘고
Joseph
Are
강호
결여
댈러스
도하
독도
무도
열도
정명
짧아
치아
키드
피리
합니다
행해진
##서구
##지에는
##해준다
##공로
##년을
##오기
##호부터
##끄럽
##5년에는
##3년에는
##스트리트
아니냐는
리그가
경제학자
##리그에서
현대적
출시되었으며
거주하던
전해졌다
물론이고
수여하는
계급은
탈락하였다
좌우에
합쳐서
##해져서
지시했다
장르를
Web
호흡을
708인
Rain
TA
갔고
경산
관문
굳이
나혜
데다
믿지
변해
보두
산인
설정을
시제
역명
염화
유방
은평
쥐고
쥐과에
지식이
초나라
최치
피스
하려는
행하여
화면에
후미
##전국
##카드의
##무덤
##들러
##순에
##중으로
##규의
##광장
##벌리
##큐어
일본서기
세계가
1977년에
작품으로는
개발되어
전통에
구간에서
오른쪽에
아시리아
행동의
판단하여
무엇보다도
##프리드
임금의
그때까지
일치하는
침입을
남아있지
나왔으며
개명하였다
오하이오주
##아파트
핸드볼
압록강
휴대전화
조선왕조실록
2와
BO
KST
Mo
Sn
Ter
갖가지
구도
귀여
그늘
꾸몄
뉴기니
많아서
발톱
벗겨
세키
양정
원조를
저우
주선
참사
초중
캐나
코스트
팀들은
황보
##지상
##장치를
##기소
##분할
##오버
##규가
##예보
##작전을
12일까지
구조물
사망하였고
22일부터
235
##ston
민주공화
대상은
유일의
선택을
동물로
Church
하이델
출생으로
마련하였다
남동부에
이하로
단백질을
Spec
##ING
전한의
다음날인
하얀색
성폭행
서바이벌
해트트릭을
5는
Dis
May
건안
기계를
던진
무찌
별도
일체의
죄로
중남
표는
하카타
핵실험
형상을
##33
##오에
##ient
##브란
##심리
##6년에는
지역별
조선중앙
로마는
계획하고
지구는
실시하여
소련에
전차의
김일성의
##ART
보관되어
개막전
명확하지
all
Green
엘리베이터
유격수
##레타리아
##장로회
하얼빈
GD
공기가
기이
낮게
던지는
상한
성체
스커
스택
슬하에
옮기는
유위
일당
작전이
재구
칸은
헤센
홍명
##즈베리
##란에
##비노
##답게
현재에도
조선시대에
진행되었고
사실이다
비판적인
계약에
##기관에
스페인과
차량으로
파이프
전차는
태풍정보
애플의
##리우스는
무게를
아테네의
소프트웨어의
곳곳에서
주축으로
내야수
하시모토
세련된
A는
SI
광도
단면
대종
여자는
연료를
염증
우디
이한
적재
전술을
조소
체력
카오
티저
피드
할양
호화
##메랄
##도우
##마타
##더레이션
##불상
##쿠사
##쿠치
##하기에는
그러면서
##arch
프랑스군
사실과
표현했다
형성하였다
언어에
공항을
지하철의
법칙에
Show
엄청나게
가오슝
##OVE
한겨레
신시내티
IB
sup
가했다
도우
오인
요리는
원료
일설
채플
총사령관
파피
편견
피쳐
한니
휘트
흔하게
##담이
##화재
##테아
##있을
##파괴
##중대
##모닉
##협동
##쓰카
##났는데
18세기에
##ison
##lev
지도자가
출생하였으며
의견도
나누고
사례를
상하이에서
사우스캐롤라이나
아인슈타인
나가노현
볼프강
산티아고
그러고나서
Get
Sant
결렬
공소
글씨를
모형을
방울
브라이
비참
성간
신발
양산시
에히메
올랭
월북
이매
전선에
클로드
통로
페미
폭력을
##키로
##데냐
##루엔
##yth
##노바
##유기
사건에서
결국은
##ush
부족의
정당별
일어나게
수비수로
단계는
귀국하였다
비난했다
박물관에
프라하
16강에
프톨레마이오
소나타
Bad
CB
Network
가정을
권력이
깃발
남우주연
뇌의
마사카
무수
상동
숭실
안데스
애매
양쪽에
예수가
원에
위축
직류
추력
친히
탐정
팔렸다
함을
함수가
향교
히다
##개소
##부대가
##무트
##배는
##보트
##2호
##M은
##입을
##악장
##칙의
세계관
영화감독
들어선
정치학
운영에
발전이
개최국
크리스틴
선출되어
구분하는
언급된다
들어가서
영역으로
강조하고
후손으로
오토모
시각을
음식이다
무게가
예비역
현역에서
##oney
근본적으로
##트릭스
유효한
어워드에서
최하위
사간원
##anguage
1이닝
교동
교대
남자와
면직
바투
벤치
유다
지명이
최규
크메르
##지였다
##기원
##상인
##명에서
##암사
##ias
##ied
##황은
##티어
##드래
##킨은
##숙의
##귀족
13세
##ouble
분류할
물리적인
시설이다
##라스노
마음으로
불리었다
발달해
수준이다
폐지된
##센터는
공급하는
게이밍
인사들이
동아프리카
승부차기
##감염증
메소포타미아
마거릿
끼워
닌자
달라이
도화
미추
보았을
북송
북베트남
수은
안기
애버
윈터
이조참
장소는
좌천
증조
참된
최전
카스트
##시온
##연과
##덕은
##좌에
##에게로
사회민주주의
사망하면서
##rew
완전하게
##레스테
인천국제공항
움직이지
확장된
상징한다
합병하여
심각하게
공군기
가나자와
바라보는
선전포
개찰구는
소프트웨어는
법조인
베네딕토
European
컵위너스컵
Jour
같고
결탁
국공
귀신
기권
니카라
때로
명중
모빌
문학을
병원으로
부전
사미
사정으로
산체
수심
싶다는
안식
안심
어스
영위
오르고
이덕
일인
임사
임을
잡기
조너
지대한
진천
측량
키타
평화의
헤로
##회사는
##시드
##수학
##두르
##분리
##어항으로
##오지
##호크
##티우스
##겐의
##그와
##좌파
##las
활동한다
작품들을
게임플레이
출판하였다
예선은
성립되었다
남북조
허용하는
정상회담
한때는
##ible
훗날의
히데요시
빼앗아
##kg이다
등장인물이다
대법관
장난감
누군가
제퍼슨
까닭에
포뮬러
Dig
ROM
국산
글씨는
남조선
내기
더한
믿음을
베드
색으로
신촌
인계
임금을
재조
증축
지체
치르게
퇴출
특성에
하구
현에
##두스
##으론
##너를
##점까지
##번호를
##렸기
##쳤다고
사용은
구성되며
영국군은
바로잡
산업을
통합진보
수용소
일제히
종합격투
문서에
합쳐져
처형되었다
받아들이고
고립된
글리제
실전배치
희귀한
폭넓게
다행히
8번
9세
Soc
같으며
고승
김학
능력에
대적
망가
미스코리아
바치는
부대로
삶은
섞인
에이지
우스
일한
입찰
조던
조엘
천상
펜타
함부로
##ny
##키지
##영에서
##페라
##날을
돌아올
인물이었다
내려온
점령하였다
배경은
##센터에서
결성했다
귀족들의
살해하고
묘사했다
##ava
편입되어
SK텔레콤
조종사
Boy
화장실
특허를
스파이더
온타리오주
디에고
1TV
Leg
log
us
격상
근교
김구는
끝내고
도가
리튬
몇가지
방안
배타
세미나
쓰던
알브레
왕자의
외부에
으뜸
이지만
지난다
직관
파장
필살
형은
##보유
##kt
##충이
##목사
##판이다
##변화
##arth
##시키기도
이탈리아와
결정은
없다면
스타트
음반인
개념에
##ople
바뀌었고
생성하는
내각을
중단하고
세운다
카메라를
나와서
김일성은
USA
##기간이
교과서
초록색
회고록
A와
AH
How
KB
SR
가디언
남로
라자
리비
밀고
발췌
배재
병마
선별
쌍방울
안쪽에
않기로
엔젤
오른다
이로부터
임실
조장
진언
천마
철원
청각
컨페
테살
페터
행위로
화이
흔적을
##서리
##더지
##레프
##범의
##투스의
##슐리
##alth
들어갔고
##ico
연구원
##회의는
일부에
참가하게
야구단
노동자들의
민족이
이동했다
##고등학교와
결승전은
드러난다
묘사하고
아테나
##orean
Conc
본질적으로
중성미
Edward
Peter
제니퍼
생생토크
NATO
Fil
Japan
Mk
OC
cl
가모
경고를
고해
권의
남지
바하
버스는
수마
시체
예부터
재검
지명으로
지형을
초원
파커
한자를
홈경기
##급이
##체험
##line
##외과
##버스의
##예선
##능을
##폭격
206
제1호
정부에서는
선거구로
결정적
인정한
방식과
상대방
건설에
언어에서
주변은
히로시
교수와
다카라
가입했다
레코딩
전역의
82ab
레오나르
대법원은
##III
트위터
갑작스런
헬리콥터
앙골라
tvN
디나모
4위에
Gra
House
과실
괴팅
대우를
따위의
로써
막강한
박수
볼드
부역
셀룰
여당
연천
옹정
우랄
잉카
제정한
중상
중에도
중세의
지명은
초점
##서면
##자로부터
##달을
##복과
##왔다고
##빈을
위치와
국제사
되어서야
참여하였고
결정한
##str
제공되는
평가하는
과정으로
발전된
지나고
##방송의
황제에
바람의
4000
성격은
중반까지
Prot
보컬을
1789년
박정희의
디스커
White
콘크리
Party
리조트
과테말라
맞배지붕
PK
cell
class
no
걸그룹
경합
관구
대소
마시는
보그
사산
사나이
산수
상감
서아시아
속에서도
스님
야행성
양재
역부터
유상
취미
클루
탁구
편의를
한꺼
헬로
현으로
화북
##동기
##춘추
##성면
##분간
##들에는
##오브
##림사
##텔라
##8년에는
##4년에는
##5년부터
그리스는
한국계
##로서도
설치류
스타일로
평가되고
연결하여
필요는
제38
공동체의
소련군의
사랑이
지도자이다
지휘했다
차량에
헌법은
경쟁에서
4년간
사례로
헤이룽
1965년에
취급하는
저서로는
법정동이다
기다리고
칠레의
중시하는
가로지르는
Luc
Over
ab
기자로
농작
듣게
뜻에
박인
배울
섬세한
스펙
시야
유적이
잠을
조우
주기도
창을
춘계
크지
털어
틀어
플뢰
##문화를
##장에게
##34
##살인
##타바
##란과
##곤은
##유대
##악을
##왔는데
##댄스
지방에서는
발생하지
제공하며
인정하였다
제37
Station
올라온
귀족들은
수비형
개시하였다
승객이
##보도부문
##직할시
##평론가
노부나가의
한꺼번에
Battle
CT
EF
Fed
ant
가변
고종이
국문
낙엽
두번
리어
많기
무쓰
비의
알론
어쨌
우마
의자
이조판서
있지는
자라고
주상
크래
타라
텐서
하산
##전에서도
##가라
##ness
##하워
##카테
##탄과
##플라스
##행은
##순서
##L은
##궐선거
##으로만
사용자들이
활동하기도
1946년에
중심부에
참여하게
표현으로
필요하다는
기업인이다
모양이다
공화국에
시민들은
##스키가
확장되었다
무렵에는
평양에서
받아들인
승진하여
차별을
조지아주
오프라인
논리적
크라운
골키퍼로
기하학적
선호하는
감옥에서
1호선의
급속도로
상응하는
아나톨리아
주세페
앙상블
보두앵
gen
감정이
구룡
기묘
기체의
단점
대장군
더하여
로베르토
머릿
반대의
부두
세가지
스완
시성
악마의
앨버
얻었으며
역에는
우쓰
인류가
장차
징계를
치과
포스코
하려
##자료를
##티카
##콘서
##말은
##작업을
##PD
##곳의
##7년에는
##시아의
조선에서
2월까지
프랑스군의
올림픽에서는
인정된다
변경된
판매되고
기관지
멤버는
##적이지만
되었기
언급하고
자치주
베르사유
본래는
부모를
원작의
조카인
강릉시
부진한
아우구스
대조적으로
Baby
플루토늄
60년
x86
가혹한
굶주
나가지
록히드
면에
묘소는
미우라
민생
바덴
법원에
보였으나
부엌
사주
어원은
요셉
육군은
잇따
종양
페테르
현이다
후로
##관측
##한정
##평리
##독일
##쳤는데
##inus
16일까지
1956년에
##리스를
##이트는
##이트의
23일까지
##ets
임명되고
결혼식
판매고를
수록한
소개하는
다카하시
대륙간
제도이다
갖추어
브랜드를
소장되어
법정동
부친의
토너먼
알렉산드로스
리베르타도
BR
Jan
NAD
Und
고스트
급기
내에서의
달리고
동급
리본
몸돌
민선
비석
손쉽게
식물이
완주
작중
지위는
##가리
##1조
##대중
##풍은
##민들의
##레트
##UT
##bert
##건으로
##볼을
##2년에는
전투이다
만들어내는
프리츠
올라갔다
물질로
분포하며
주도하는
거부하는
상징적인
혁명에
가담한
금강산
연금술
BMW
B의
are
귀가
기욤
내적
노브고로
띄게
마포
모임을
서고
서문
소선거구
아자
음양
이효
주기를
즉흥
틈타
퍼졌다
한라
흉내
힘은
##부에서는
##나타
##협회가
##팔렌
##악산
##없다
##났을
##갔으나
활동하였고
역사학
수행한
개념과
고속철도
주인공의
SBS에서
1962년에
##차례의
트랜지
향상된
비트코
##마저도
##그래피
토마토
실시간으로
니가타현
성폭력
31년
8천
Camp
RD
간쑤
갈색을
공사는
김문
노골
다이나
매춘
매튜
무정부
소자
손해를
알프
연안의
예문관
용기를
이브라
일대는
튜링
할로
홍천
회담을
##고스
##개정
##소비
##노비치
##그란
##F는
##ines
17일까지
있었음을
##시키거나
행정동이다
일어났고
발전의
항공기의
경찰청
국회의원이
1998년부터
드러난
방문하는
오래전부터
일종인
2개를
1801년
행사할
동성결혼
적절히
사냥을
오다와라
법조인이다
그랜트
금환일식은
베스트셀러
3시간
Dep
Gar
강사
까마귀
도난
독주
문학적
소음
양심
양자가
의병을
자수
재빨리
지시에
통신을
피가
홀딩
##구락
##공격을
##보조
##분교는
##페인
##2조
##바타
##백화점
##투수
아이누
영국군의
가능하도록
발표하였고
차지했으며
월드컵을
정책과
나오며
국내에서는
텔레노
작곡했다
아시아에서
1995년부터
프레슬
파괴된
결성하였다
##ense
##쿠스틱
웨일스의
종사하는
AMD
##줄기세포
간파
결사
구운
낚시
뉴사우스
도라
봉기를
뽑혔다
쇼팽
알리기
앓고
인스턴
점의
철로
청교도
코페르
포격을
##선도
##길의
##프셔
14개의
프랑스인
1930년대에
##oud
이전까지는
사실로
성공하여
출전하는
전국적인
동일시
선정했다
##agement
##rib
대륙에
1850년
레코드를
대비해
동원해
해양수산
동영상을
아우구스트
펜실베이니아주
나눈다
영등포
시직경이
4기
Mem
RE
경위
군자
그들과
기질
높으며
로베르트
모션
못하며
미러
블룸
세상에서
손자인
순위는
신도시
없습니다
오류가
외과
음모를
일었다
자외선
장은
절제
좁아
중상을
해전에서
호른
##ger
##소유
##버려
##미분
##준과
##설로
##쿠로
##리아노
시즌2
출전하였고
아르바이트
나오기
기독교를
작가인
표준을
주민들을
비행기를
사라진다
미사일은
원칙으로
1964년에
확정된
샤를마뉴
드물다
준결승전
##ruct
가환환
아이젠하워
3라운드
Game
Jo
개월
고개를
관내
낙양
느슨
대책을
배기
부름을
산술
상투
상층
속하지
수백만
압송
에나
유창
이대
장경
정했다
처방
총애
치킨
태조의
현이
##식스
##적이었던
##후로
##burg
##P의
##받기도
20km
10의
아이작
225
대학교가
대전에
클럽이
자동적으로
적용되어
##크로스
우리에게
제한하는
표시된다
외부에서
수학에서
확보하기
나카노
##기간을
치러졌다
개설되어
멸종위기
코믹스
Frank
토요타
코로나바이러스감염증
메르세데스
Aust
MIT
po
간을
건네
골라
긴밀한
낙랑
넘는다
넣을
다이스케
도나
몰리
밝히는
법화
베테랑
본문
불상의
선에
시영
액세스
야드
어쿠스틱
울트라
유독
잊혀
자부
자존
전에서
정승
주앙
직위
진성
진나라의
##go
##법에서는
##달은
##섬에
##거와
##밖의
##쳤던
독일로
1958년에
진행되었으며
2007년까지
데뷔하여
##idd
자동변속
동물이
표준화
방문객
수용체
45분
내각총리
귀족의
네트워크의
법칙은
Real
자리잡은
조용히
태평천
피라미드
히말라야
2TV에서
3호선
Imp
Land
가결
개구
공군은
기네스
다짐
동프랑
마른
박사의
방호
밸리
보도가
사소한
상대의
새천년
어사
잡지에
조조의
주이다
커져
켄트
코넬
탤런
파격
헤지
협회는
홈페이
##티엔
##태자
##모양의
##HD
##디온
##독재
##악기
##쿠젠
것으로는
발매되었고
자연수
민족적
전통의
교통이
세포를
접근하는
다루었다
오르기도
문서의
노력하고
없어지고
선고했다
합의했다
무너져
가슴에
싸움에서
깨끗한
그레고리력으로
동점골을
1st
2km
Aug
Fin
HE
Pan
견해도
국수
나도
노력으로
논의를
데쓰
동명이
리브
리모
모세
번호가
봉우
불렸으며
사정을
생제르
샬케
선조는
쇠고기
양국의
어쩌
예의
유화
이부
인하
임종
자식을
잠비아
죄수
초계
##전서
##키오
##지점
##보게
##상속
##혁은
##방면
##형무
##막에
##움은
시작해서
아이들은
결국에는
가운데에는
자연과학
학교로
형성되는
##카이치
##uter
공화국과
형식이다
해석하는
300여
교체로
반발하여
체제에서
##ather
함경도
마감했다
4차원
신속하게
##선거관리위원회
하이델베르크
9대
FBI
Little
Ul
개축
구세
남성과
당한다
든다
무거
봉헌
선명
수학과
시공간
앙드레
앵커
왕당
은둔
이안
종들은
주시
충주시
취직
카세
탄수
투병
팔로
패퇴
행한
후난
##부사로
##부대는
##스탕
##화에서는
##제도는
##질라
##판에는
##범이
##났으나
##즐리
사용해서
구성하여
형태에
기술적인
여성주의
그리스어로
FC와
베트남에서
예정이었지만
정당인
##지역은
##사업에
패배로
엘리엇
비밀을
국왕으로
베이징에
Commun
반영한
사항은
카이사르는
바나나
부분일식으로
4명이
7의
da
과달
껍질
남용
내성
랭커
버퍼
비욘
사명
생을
소원
수나라
심법
아종이
압수
열렸으며
엿볼
육박
익산시
작년
적정
접목
찾은
취향
카보
트러
학문에
해는
확대를
후회
##리니
##9조
##도감
##장교
##상가
##나치
##신탁
##머의
##운전
##현상
##진화
##매의
##필로
##익은
##X는
##룡은
204
##ona
##리스와
지방선거
타이탄
건설한
어려울
1996년부터
제품에
북쪽에서
##ester
출발한
김해시
##훈련을
패턴을
##관찰사
리얼리티
왕세자
정유재
4단
River
내로
넘은
달랐다
리하르트
마에다
못하자
무주
발상
방침을
상계
성형
소양
순양함
시아
시조로
신안군
양국은
엘비스
음절
이숙
작게
착한
캔터
탈피
팔려
학업을
허버트
##담은
##데스는
##족들이
##01
##연장
##거루
##매니아
##혈을
1966년에
들어있는
이용되었다
우승하는
참가국
모델인
형성된다
운행된다
구분하여
방문하였다
승강장과
개혁의
출생과
엔진과
금지되었다
##관계는
탄생하였다
장착되어
##전문대학
독립운동을
광복군
정체성
다이묘이다
사르데냐
시부야
볼셰비키
A조
Bill
Lab
LIVE
Sub
꺼내
남포
내었다
노다
대인
본사가
사보
쓰며
엘튼
오도
유이
의왕
종래
증강
증원
춘천시
카레
탈옥
##관왕
##전화
##화된다
##선발
##해수
##단백질
##교섭
##예산
##학교가
미국과의
1967년에
4월까지
이탈리아로
로마를
과정과
만들어서
이야기로
인정할
2001년에는
크리스탈
##cm로
소재를
1854년
도망쳐
매니지
서해안
전년도
컨페더레이션
NK
fl
imp
pre
거리로
김세
도큐
매월
생년
선더
선에서
아내는
위태
종실
중후
총알
최북
칼빈
판단을
홍무
##담의
##화되는
##상품
##정부에
##∼16
##닌의
##텍스
##즐랜드
207
있다며
축구의
2012년까지
마을버스
지지하고
증가한
실험은
정규앨범
금지하고
살해당했다
취득한
어디에
불렀으며
가시광
플랑드르
객관적
타지키스탄
##티넨털
4가
Cry
가정의
거치며
고압
군주의
디펜
만수
박세
반군
부지에
사투
수하
수구
숙주
쌓여
얼터
옮기고
우니
유루
자리가
전일본
질의
하버
학업
해동
##무지
##속이
##오스트
##타에
##타기
##방어
##저가
##음보살
##평이
##경보다
##날드
##lad
가장자리에
1948년에
사회복지
중국인민
러시아인
24일까지
이탈리아에
없다며
2013년부터
제3의
이론적으로
##umber
자기장
1997년부터
32비트
1800년
공유하고
병사들을
사임했다
주기적으로
긍정적
반지름
원내대표
루키우스
B는
e스포츠
객차
결장
골은
군도
급수
데루
맡겼다
머니
믹스
서명을
에린
영적
영예를
유공
중학생
팬아메리칸
한옥
효력이
##uel
##5m
##ker
##외로
##남의
##IO
##88
##퍼센트
##KA
##끼리의
##돈을
18일까지
사이는
1960
7월까지
문제들을
##elop
라이베리아
생산된다
개최했다
마음대로
아프리카에서
시도한
1849년
마련한
초반부터
불과한
열대저기압
플레이오프를
사법연수
싱가포
스탈린의
혁신적인
컨트롤러
헌법재판소
경희대학교
보나파르트
뉴사우스웨
Kim
Run
V6
가온
괴뢰
구장으로
빅터
산정
성단
소탕
열렬한
오마
자사의
카멜
함정
환자는
##학파
##카게
##lish
##직과
##1년에는
##주의로
문화유산
공격수로
자유한국당
클럽을
데이터는
해외에서
확보하고
신설되었으며
목적의
받아들여지지
쿠바의
분데스리가의
동성애자
아나키스트
무작위
1주
괴멸
기리고
내지는
노사
당은
도끼
두껍
뒤따
등에서도
몸통
바를
벨로
빛깔
사흘
썼고
알았다
약을
여권
옷주
인질
중량
최경
카툰
특전
함대의
해지
홍백
##관계의
##가치
##코스는
활동할
제작이
배우자
소속사는
조직한
##ents
월드컵과
적용한
동물원
출판한
유니코드
계열사
만화이다
1857년
떠나고
부문의
거절하고
##플레이오프
아리랑
LCD
바빌로니아
Service
세컨드
Fest
Hal
Saint
말소
문장이
방면의
범용
사역
성경을
언젠
업계
입장이
주황
찾는다
총살
코베
한하여
##uf
##들로는
##ym
##림에서
##중독
##거성
##였기에
##범은
##책은
##튼은
15만
##부분을
30대
대학원에서
시대적
이루어졌으며
##이드의
기업을
State
이와테
공화국에서
통과할
생성한다
발행되었다
계산하는
1855년
나타나게
녹음한
건강을
편성되었다
##슈타인은
개칭하였다
발발한
일시적인
가끔씩
